
#ifndef BAD_TINY_MODEL_H
#define BAD_TINY_MODEL_H

const unsigned char bad_tiny_model[] = {
32, 0, 0, 0, 84, 70, 76, 51, 0, 0, 0, 0, 20, 0, 32, 0, 28, 0, 24, 0, 20, 0, 16, 0, 12, 0, 0, 0, 8, 0, 4, 0, 20, 0, 0, 0, 28, 0, 0, 0, 140, 0, 0, 0, 228, 0, 0, 0, 20, 52, 0, 0, 36, 52, 0, 0, 220, 69, 0, 0, 3, 0, 0, 0, 1, 0, 0, 0, 4, 0, 0, 0, 246, 202, 255, 255, 12, 0, 0, 0, 28, 0, 0, 0, 60, 0, 0, 0, 15, 0, 0, 0, 115, 101, 114, 118, 105, 110, 103, 95, 100, 101, 102, 97, 117, 108, 116, 0, 1, 0, 0, 0, 4, 0, 0, 0, 144, 255, 255, 255, 22, 0, 0, 0, 4, 0, 0, 0, 8, 0, 0, 0, 111, 117, 116, 112, 117, 116, 95, 48, 0, 0, 0, 0, 1, 0, 0, 0, 4, 0, 0, 0, 254, 202, 255, 255, 4, 0, 0, 0, 12, 0, 0, 0, 107, 101, 114, 97, 115, 95, 116, 101, 110, 115, 111, 114, 0, 0, 0, 0, 2, 0, 0, 0, 52, 0, 0, 0, 4, 0, 0, 0, 220, 255, 255, 255, 25, 0, 0, 0, 4, 0, 0, 0, 19, 0, 0, 0, 67, 79, 78, 86, 69, 82, 83, 73, 79, 78, 95, 77, 69, 84, 65, 68, 65, 84, 65, 0, 8, 0, 12, 0, 8, 0, 4, 0, 8, 0, 0, 0, 24, 0, 0, 0, 4, 0, 0, 0, 19, 0, 0, 0, 109, 105, 110, 95, 114, 117, 110, 116, 105, 109, 101, 95, 118, 101, 114, 115, 105, 111, 110, 0, 26, 0, 0, 0, 44, 51, 0, 0, 36, 51, 0, 0, 16, 51, 0, 0, 252, 50, 0, 0, 232, 50, 0, 0, 212, 50, 0, 0, 180, 50, 0, 0, 100, 50, 0, 0, 84, 6, 0, 0, 4, 6, 0, 0, 116, 1, 0, 0, 68, 1, 0, 0, 236, 0, 0, 0, 228, 0, 0, 0, 220, 0, 0, 0, 212, 0, 0, 0, 204, 0, 0, 0, 196, 0, 0, 0, 188, 0, 0, 0, 180, 0, 0, 0, 172, 0, 0, 0, 164, 0, 0, 0, 156, 0, 0, 0, 148, 0, 0, 0, 116, 0, 0, 0, 4, 0, 0, 0, 226, 203, 255, 255, 4, 0, 0, 0, 96, 0, 0, 0, 12, 0, 0, 0, 8, 0, 14, 0, 8, 0, 4, 0, 8, 0, 0, 0, 16, 0, 0, 0, 40, 0, 0, 0, 0, 0, 6, 0, 8, 0, 4, 0, 6, 0, 0, 0, 4, 0, 0, 0, 1, 0, 0, 0, 235, 3, 0, 0, 12, 0, 24, 0, 20, 0, 16, 0, 12, 0, 4, 0, 12, 0, 0, 0, 209, 69, 94, 87, 136, 139, 244, 211, 2, 0, 0, 0, 2, 0, 0, 0, 4, 0, 0, 0, 6, 0, 0, 0, 50, 46, 50, 48, 46, 48, 0, 0, 78, 204, 255, 255, 4, 0, 0, 0, 16, 0, 0, 0, 49, 46, 49, 52, 46, 48, 0, 0, 0, 0, 0, 0, 0, 0, 0, 0, 200, 188, 255, 255, 204, 188, 255, 255, 208, 188, 255, 255, 212, 188, 255, 255, 216, 188, 255, 255, 220, 188, 255, 255, 224, 188, 255, 255, 228, 188, 255, 255, 232, 188, 255, 255, 236, 188, 255, 255, 240, 188, 255, 255, 150, 204, 255, 255, 4, 0, 0, 0, 72, 0, 0, 0, 181, 46, 74, 57, 211, 241, 231, 49, 127, 94, 127, 53, 38, 47, 251, 0, 189, 8, 129, 192, 155, 195, 30, 106, 4, 166, 204, 243, 255, 255, 97, 127, 192, 238, 251, 14, 89, 35, 42, 154, 129, 165, 250, 210, 239, 248, 220, 205, 127, 51, 240, 231, 246, 232, 187, 217, 235, 159, 129, 141, 217, 214, 208, 213, 116, 127, 184, 89, 198, 45, 183, 196, 234, 204, 255, 255, 4, 0, 0, 0, 32, 0, 0, 0, 6, 193, 255, 255, 97, 185, 255, 255, 201, 21, 0, 0, 62, 200, 255, 255, 26, 27, 0, 0, 236, 252, 255, 255, 0, 0, 0, 0, 96, 198, 255, 255, 22, 205, 255, 255, 4, 0, 0, 0, 128, 4, 0, 0, 255, 247, 242, 25, 190, 248, 29, 30, 9, 32, 248, 33, 204, 231, 234, 236, 14, 7, 18, 214, 161, 193, 234, 34, 234, 38, 15, 8, 11, 206, 227, 66, 3, 44, 242, 28, 231, 13, 232, 39, 60, 9, 232, 49, 216, 45, 32, 42, 23, 14, 251, 52, 100, 56, 223, 214, 21, 229, 232, 224, 42, 235, 6, 33, 47, 40, 24, 238, 29, 234, 225, 127, 28, 25, 251, 4, 16, 251, 252, 74, 14, 29, 249, 66, 28, 48, 13, 84, 244, 25, 220, 8, 34, 10, 243, 37, 38, 243, 230, 3, 127, 40, 230, 34, 15, 255, 232, 19, 98, 9, 25, 100, 231, 241, 2, 10, 68, 12, 248, 253, 242, 19, 15, 8, 0, 249, 248, 255, 53, 0, 238, 23, 250, 13, 14, 216, 37, 19, 238, 38, 206, 27, 231, 240, 42, 29, 49, 237, 201, 255, 6, 115, 33, 13, 104, 12, 236, 10, 237, 127, 15, 32, 58, 245, 251, 14, 37, 81, 247, 229, 197, 14, 211, 223, 27, 31, 8, 253, 187, 14, 225, 199, 1, 21, 30, 2, 175, 49, 4, 228, 19, 252, 248, 10, 51, 32, 38, 221, 36, 27, 250, 233, 236, 27, 231, 14, 30, 43, 38, 245, 53, 36, 227, 244, 221, 31, 18, 240, 154, 40, 212, 40, 224, 13, 233, 228, 142, 15, 221, 249, 239, 10, 25, 8, 211, 240, 202, 224, 15, 75, 254, 35, 87, 22, 246, 249, 6, 68, 40, 7, 101, 28, 241, 96, 20, 64, 27, 33, 74, 53, 15, 43, 219, 78, 3, 47, 129, 242, 221, 221, 26, 60, 225, 33, 133, 222, 221, 185, 36, 22, 241, 254, 149, 31, 214, 165, 217, 28, 0, 9, 194, 16, 38, 45, 225, 85, 245, 241, 164, 253, 21, 26, 19, 21, 232, 216, 195, 233, 42, 40, 246, 22, 248, 241, 191, 215, 68, 78, 238, 217, 238, 216, 0, 53, 25, 60, 231, 238, 235, 211, 206, 35, 209, 68, 1, 228, 241, 3, 221, 18, 248, 22, 254, 247, 10, 35, 220, 238, 251, 4, 11, 127, 7, 20, 254, 10, 206, 25, 229, 46, 251, 5, 21, 0, 34, 76, 1, 23, 218, 247, 1, 248, 16, 63, 230, 247, 248, 234, 30, 16, 209, 29, 1, 242, 209, 230, 9, 223, 228, 148, 12, 160, 244, 233, 2, 215, 237, 158, 247, 218, 45, 235, 9, 114, 218, 11, 240, 197, 215, 233, 12, 221, 251, 200, 241, 187, 13, 214, 22, 196, 6, 181, 239, 37, 244, 249, 38, 205, 246, 208, 240, 127, 2, 249, 225, 251, 233, 234, 28, 30, 2, 22, 235, 248, 27, 18, 11, 18, 9, 43, 234, 11, 191, 3, 250, 127, 252, 12, 52, 241, 210, 9, 249, 67, 254, 42, 203, 35, 229, 92, 4, 6, 1, 245, 195, 242, 216, 7, 229, 67, 237, 29, 217, 13, 213, 47, 227, 17, 23, 254, 251, 237, 10, 233, 251, 74, 225, 9, 219, 212, 224, 229, 242, 10, 244, 20, 1, 10, 192, 240, 238, 175, 8, 9, 35, 227, 249, 191, 248, 224, 20, 38, 19, 34, 237, 43, 236, 48, 39, 24, 252, 249, 45, 226, 228, 251, 9, 29, 54, 20, 50, 1, 254, 251, 34, 237, 45, 53, 66, 68, 233, 19, 15, 248, 25, 82, 216, 127, 27, 93, 1, 238, 28, 247, 197, 75, 240, 58, 24, 11, 248, 197, 240, 167, 229, 49, 217, 216, 186, 215, 236, 212, 243, 236, 254, 244, 173, 251, 182, 196, 18, 0, 6, 253, 158, 15, 184, 177, 35, 22, 46, 7, 19, 233, 60, 7, 7, 222, 6, 32, 40, 18, 1, 7, 28, 224, 239, 42, 20, 40, 249, 53, 226, 206, 32, 29, 61, 39, 214, 49, 250, 59, 7, 13, 32, 0, 226, 19, 34, 127, 45, 20, 62, 39, 227, 74, 234, 118, 28, 230, 240, 20, 245, 58, 2, 242, 250, 251, 242, 247, 238, 63, 7, 190, 245, 11, 2, 0, 230, 54, 1, 40, 212, 235, 24, 2, 74, 225, 7, 161, 20, 254, 29, 9, 55, 0, 8, 202, 237, 12, 12, 234, 29, 19, 19, 240, 22, 255, 52, 7, 73, 38, 37, 23, 1, 215, 59, 8, 100, 19, 247, 66, 15, 239, 32, 223, 127, 46, 7, 41, 240, 156, 100, 194, 48, 196, 224, 162, 2, 166, 127, 36, 237, 51, 18, 253, 50, 191, 64, 39, 55, 111, 36, 214, 18, 193, 49, 53, 17, 242, 253, 194, 232, 192, 70, 244, 18, 237, 22, 7, 19, 1, 18, 228, 67, 177, 221, 78, 234, 210, 57, 237, 46, 228, 231, 34, 11, 247, 80, 243, 27, 33, 244, 68, 35, 212, 92, 69, 68, 74, 238, 40, 26, 219, 166, 231, 153, 213, 219, 251, 17, 247, 131, 228, 142, 219, 219, 199, 35, 231, 164, 9, 187, 62, 231, 13, 41, 45, 102, 54, 167, 56, 228, 127, 33, 13, 71, 65, 239, 64, 1, 113, 25, 8, 20, 24, 171, 46, 243, 68, 254, 6, 215, 24, 180, 248, 19, 29, 226, 247, 196, 251, 216, 190, 237, 14, 37, 216, 186, 22, 240, 216, 28, 21, 1, 36, 23, 245, 35, 149, 245, 134, 39, 254, 177, 232, 1, 220, 219, 183, 227, 240, 235, 30, 253, 167, 239, 170, 81, 59, 91, 60, 135, 230, 230, 76, 41, 42, 240, 113, 190, 113, 244, 68, 218, 222, 217, 251, 129, 207, 238, 171, 56, 1, 40, 221, 209, 245, 248, 242, 253, 20, 89, 37, 207, 218, 2, 237, 66, 25, 248, 68, 208, 36, 24, 150, 13, 25, 216, 222, 54, 185, 223, 6, 44, 251, 248, 33, 15, 12, 242, 60, 19, 31, 28, 14, 242, 27, 9, 245, 25, 4, 219, 243, 215, 23, 1, 48, 43, 9, 208, 208, 6, 218, 13, 15, 12, 6, 4, 5, 23, 223, 30, 227, 246, 235, 249, 223, 21, 158, 230, 201, 63, 1, 199, 218, 165, 169, 230, 43, 19, 49, 231, 95, 205, 127, 34, 71, 225, 210, 248, 239, 249, 27, 29, 218, 203, 4, 246, 182, 213, 239, 249, 225, 217, 246, 240, 171, 201, 207, 247, 251, 248, 238, 243, 209, 18, 13, 10, 249, 27, 240, 42, 10, 27, 189, 30, 1, 40, 12, 52, 20, 9, 55, 248, 224, 241, 236, 58, 172, 206, 215, 241, 224, 9, 24, 71, 246, 197, 254, 250, 70, 46, 9, 40, 111, 219, 127, 249, 96, 26, 205, 228, 200, 215, 202, 22, 216, 208, 226, 226, 223, 231, 171, 29, 250, 191, 229, 251, 4, 238, 248, 28, 86, 58, 27, 37, 19, 253, 127, 219, 67, 36, 230, 21, 8, 237, 104, 255, 38, 13, 227, 47, 9, 188, 15, 29, 22, 54, 43, 1, 225, 243, 212, 230, 77, 245, 21, 97, 41, 226, 88, 227, 23, 247, 254, 51, 44, 237, 90, 232, 251, 162, 209, 255, 255, 4, 0, 0, 0, 64, 0, 0, 0, 244, 248, 255, 255, 12, 254, 255, 255, 78, 212, 255, 255, 5, 202, 255, 255, 157, 247, 255, 255, 236, 31, 0, 0, 22, 252, 255, 255, 33, 237, 255, 255, 216, 210, 255, 255, 52, 5, 0, 0, 182, 232, 255, 255, 61, 208, 255, 255, 48, 247, 255, 255, 0, 245, 255, 255, 200, 13, 0, 0, 47, 247, 255, 255, 238, 209, 255, 255, 4, 0, 0, 0, 0, 44, 0, 0, 158, 254, 31, 24, 252, 167, 5, 72, 173, 16, 57, 227, 83, 30, 238, 29, 20, 79, 148, 10, 80, 4, 143, 227, 240, 168, 249, 255, 38, 229, 149, 156, 52, 192, 191, 39, 229, 246, 33, 241, 100, 208, 142, 172, 84, 240, 187, 180, 62, 236, 251, 255, 192, 54, 181, 237, 52, 54, 2, 215, 64, 32, 232, 230, 136, 2, 187, 102, 93, 144, 22, 139, 58, 85, 15, 242, 149, 161, 99, 255, 238, 63, 198, 222, 193, 4, 161, 212, 156, 6, 247, 62, 148, 163, 205, 191, 169, 57, 41, 138, 70, 158, 192, 51, 180, 213, 78, 163, 92, 235, 201, 49, 54, 235, 224, 133, 194, 115, 51, 188, 142, 79, 199, 40, 55, 41, 113, 181, 101, 3, 252, 205, 197, 206, 226, 224, 250, 227, 93, 11, 191, 209, 13, 36, 253, 30, 182, 167, 193, 241, 86, 198, 190, 248, 85, 228, 251, 213, 114, 161, 147, 234, 187, 2, 189, 164, 63, 252, 78, 187, 242, 4, 250, 163, 210, 238, 33, 220, 196, 103, 68, 9, 207, 223, 255, 141, 195, 202, 49, 207, 161, 87, 5, 78, 64, 177, 158, 90, 40, 58, 137, 152, 80, 10, 94, 131, 147, 147, 74, 170, 108, 95, 247, 46, 24, 78, 192, 201, 151, 201, 1, 246, 56, 230, 187, 29, 251, 41, 168, 203, 87, 188, 132, 76, 104, 206, 94, 97, 205, 196, 88, 157, 56, 143, 106, 150, 10, 27, 176, 215, 176, 31, 174, 31, 108, 140, 79, 15, 38, 96, 223, 198, 251, 244, 56, 175, 239, 102, 98, 24, 53, 229, 129, 56, 247, 36, 14, 218, 129, 2, 43, 141, 90, 130, 25, 215, 32, 161, 221, 243, 219, 236, 84, 178, 222, 6, 150, 148, 184, 157, 238, 169, 155, 186, 52, 55, 171, 54, 218, 149, 92, 130, 24, 65, 152, 148, 159, 44, 37, 70, 27, 150, 38, 170, 166, 97, 76, 186, 131, 221, 57, 148, 44, 79, 225, 240, 205, 162, 139, 75, 190, 249, 135, 207, 71, 232, 190, 9, 0, 225, 33, 252, 9, 44, 5, 12, 154, 254, 93, 211, 31, 37, 235, 13, 205, 81, 51, 147, 86, 36, 66, 11, 146, 106, 161, 180, 33, 54, 147, 104, 57, 95, 194, 5, 146, 200, 50, 57, 163, 210, 192, 88, 84, 51, 70, 0, 223, 199, 241, 197, 200, 35, 152, 195, 87, 36, 205, 200, 53, 176, 173, 102, 228, 182, 242, 166, 21, 20, 207, 16, 143, 238, 162, 203, 231, 185, 109, 203, 218, 133, 145, 217, 198, 205, 229, 7, 187, 182, 201, 134, 24, 207, 3, 139, 79, 141, 252, 57, 216, 104, 158, 163, 239, 161, 168, 138, 231, 229, 160, 40, 139, 24, 20, 207, 188, 104, 109, 21, 144, 210, 210, 169, 242, 155, 35, 40, 199, 230, 80, 1, 72, 143, 212, 216, 190, 36, 250, 49, 30, 173, 224, 44, 133, 221, 208, 1, 101, 21, 75, 241, 215, 54, 142, 165, 235, 75, 61, 242, 13, 222, 89, 56, 32, 28, 106, 141, 242, 244, 91, 143, 147, 108, 39, 5, 59, 192, 196, 60, 49, 152, 252, 203, 160, 61, 10, 145, 253, 103, 1, 91, 159, 77, 19, 119, 172, 105, 219, 199, 148, 175, 161, 221, 147, 237, 2, 78, 134, 161, 37, 89, 98, 53, 164, 60, 14, 172, 88, 151, 31, 218, 87, 159, 235, 221, 177, 31, 33, 240, 230, 40, 175, 198, 83, 59, 11, 167, 166, 243, 163, 87, 45, 161, 41, 168, 213, 228, 117, 39, 66, 214, 181, 101, 155, 139, 12, 44, 90, 44, 76, 68, 239, 1, 89, 189, 235, 141, 85, 157, 14, 161, 142, 178, 247, 236, 52, 139, 182, 75, 248, 146, 50, 82, 99, 222, 104, 66, 71, 227, 237, 199, 30, 109, 173, 152, 250, 79, 246, 19, 243, 201, 91, 176, 150, 5, 238, 160, 207, 184, 36, 58, 196, 223, 244, 84, 162, 40, 46, 237, 130, 156, 198, 19, 30, 200, 88, 24, 210, 9, 69, 3, 61, 66, 234, 15, 96, 232, 22, 26, 191, 80, 158, 99, 212, 65, 185, 95, 176, 243, 109, 42, 54, 174, 144, 124, 3, 2, 250, 17, 246, 29, 241, 247, 30, 17, 85, 6, 253, 254, 252, 18, 245, 250, 238, 27, 32, 16, 249, 242, 50, 13, 84, 2, 242, 241, 33, 27, 251, 244, 241, 35, 24, 29, 8, 248, 244, 254, 81, 12, 236, 5, 36, 7, 1, 243, 245, 56, 42, 14, 243, 5, 21, 248, 55, 48, 11, 246, 61, 20, 4, 1, 248, 11, 255, 9, 241, 238, 95, 6, 8, 234, 254, 17, 10, 85, 17, 250, 13, 13, 12, 3, 254, 6, 65, 242, 246, 232, 0, 12, 13, 68, 247, 7, 80, 33, 233, 237, 23, 247, 15, 229, 229, 22, 20, 247, 217, 249, 22, 12, 67, 46, 17, 222, 1, 20, 27, 243, 241, 33, 251, 22, 239, 21, 248, 1, 22, 34, 45, 182, 28, 254, 27, 235, 217, 19, 16, 12, 242, 35, 21, 0, 49, 53, 30, 213, 15, 248, 60, 224, 228, 47, 255, 19, 20, 55, 15, 251, 55, 84, 238, 232, 9, 9, 35, 3, 186, 42, 1, 253, 223, 24, 0, 253, 72, 59, 15, 225, 29, 17, 230, 241, 227, 46, 2, 244, 251, 21, 2, 14, 69, 67, 36, 219, 2, 238, 29, 11, 234, 49, 1, 5, 248, 28, 234, 9, 32, 58, 47, 199, 9, 244, 29, 246, 235, 55, 233, 239, 250, 79, 255, 225, 44, 238, 33, 212, 252, 239, 21, 2, 4, 250, 251, 231, 1, 15, 8, 230, 52, 250, 3, 209, 244, 236, 45, 243, 214, 1, 253, 237, 4, 214, 3, 240, 23, 45, 236, 40, 7, 246, 37, 239, 15, 250, 3, 242, 194, 20, 6, 249, 23, 86, 252, 12, 235, 244, 39, 247, 227, 72, 251, 240, 20, 203, 248, 255, 77, 93, 14, 23, 20, 0, 18, 252, 221, 59, 253, 3, 231, 242, 254, 255, 40, 91, 6, 248, 254, 5, 60, 243, 230, 34, 10, 8, 250, 6, 255, 250, 53, 40, 235, 3, 5, 16, 35, 231, 224, 26, 7, 242, 239, 7, 22, 252, 82, 22, 242, 5, 14, 6, 14, 236, 233, 50, 3, 1, 16, 13, 246, 248, 40, 7, 16, 26, 9, 8, 252, 236, 218, 21, 255, 14, 230, 32, 250, 252, 37, 15, 237, 16, 246, 6, 33, 245, 199, 8, 15, 7, 241, 13, 255, 18, 211, 24, 1, 29, 254, 15, 2, 234, 202, 31, 12, 252, 13, 12, 249, 2, 243, 32, 21, 8, 8, 251, 26, 5, 222, 46, 10, 11, 7, 74, 18, 236, 221, 244, 23, 2, 5, 252, 30, 249, 224, 21, 22, 15, 16, 39, 244, 217, 5, 9, 240, 222, 249, 231, 231, 247, 249, 7, 240, 240, 236, 15, 6, 10, 249, 9, 246, 19, 14, 22, 16, 16, 15, 27, 5, 10, 251, 253, 16, 249, 0, 5, 253, 34, 224, 242, 76, 1, 38, 25, 25, 2, 6, 53, 254, 30, 23, 25, 5, 23, 3, 13, 20, 0, 50, 249, 17, 10, 68, 52, 3, 23, 21, 26, 7, 6, 26, 3, 2, 2, 32, 41, 14, 6, 28, 39, 243, 227, 225, 37, 5, 219, 23, 251, 236, 244, 41, 38, 12, 10, 238, 28, 246, 234, 1, 249, 211, 191, 240, 5, 237, 244, 24, 250, 0, 14, 26, 208, 8, 238, 21, 33, 229, 29, 238, 242, 54, 233, 247, 56, 9, 1, 247, 6, 249, 226, 238, 44, 221, 21, 22, 26, 46, 8, 10, 82, 16, 244, 243, 42, 11, 2, 33, 33, 234, 240, 252, 11, 53, 2, 254, 49, 254, 251, 3, 223, 243, 246, 44, 3, 244, 3, 248, 252, 242, 251, 4, 35, 238, 243, 29, 237, 7, 246, 7, 8, 238, 206, 226, 243, 231, 255, 254, 11, 249, 4, 50, 4, 0, 1, 252, 42, 5, 228, 4, 14, 45, 252, 8, 96, 15, 7, 84, 39, 253, 238, 14, 7, 228, 60, 21, 31, 64, 30, 250, 35, 13, 14, 47, 90, 34, 32, 67, 255, 225, 66, 16, 29, 26, 7, 30, 17, 16, 34, 80, 253, 28, 32, 54, 246, 249, 56, 36, 19, 242, 252, 70, 65, 43, 17, 81, 69, 10, 15, 52, 243, 230, 90, 6, 15, 21, 1, 52, 10, 24, 37, 127, 34, 165, 171, 232, 184, 38, 199, 172, 231, 7, 167, 228, 236, 38, 165, 60, 1, 206, 240, 166, 97, 22, 70, 65, 244, 10, 216, 203, 81, 50, 90, 246, 177, 55, 63, 87, 202, 45, 135, 217, 39, 216, 215, 188, 12, 225, 175, 48, 53, 232, 166, 236, 250, 22, 34, 236, 218, 26, 132, 246, 46, 98, 0, 69, 14, 243, 254, 157, 15, 139, 22, 224, 188, 206, 173, 201, 245, 73, 98, 9, 29, 20, 51, 216, 154, 86, 10, 178, 161, 0, 154, 74, 44, 213, 222, 8, 2, 63, 41, 2, 151, 218, 16, 197, 85, 247, 153, 199, 149, 184, 160, 17, 12, 11, 225, 203, 24, 241, 196, 38, 60, 150, 255, 40, 247, 4, 56, 216, 181, 89, 41, 238, 179, 38, 199, 57, 5, 161, 165, 252, 181, 47, 48, 220, 232, 147, 164, 32, 177, 213, 185, 181, 36, 8, 49, 152, 79, 225, 42, 206, 183, 40, 249, 14, 183, 210, 77, 2, 164, 80, 232, 235, 73, 61, 72, 191, 161, 27, 158, 150, 176, 129, 44, 245, 52, 224, 71, 224, 234, 41, 95, 31, 232, 46, 58, 195, 192, 232, 192, 17, 158, 95, 74, 215, 86, 170, 24, 55, 35, 163, 200, 227, 73, 159, 28, 28, 202, 59, 51, 27, 212, 145, 25, 175, 192, 36, 93, 253, 52, 57, 204, 210, 89, 90, 238, 13, 46, 85, 223, 41, 165, 168, 156, 24, 92, 183, 59, 161, 35, 38, 254, 28, 73, 64, 179, 206, 52, 49, 240, 77, 193, 203, 81, 168, 251, 191, 225, 37, 177, 71, 54, 237, 224, 208, 48, 252, 168, 35, 241, 237, 242, 95, 200, 143, 71, 82, 226, 9, 172, 239, 246, 44, 42, 35, 200, 35, 75, 222, 202, 176, 149, 253, 165, 83, 81, 159, 172, 248, 93, 255, 5, 145, 196, 1, 145, 24, 94, 23, 0, 3, 243, 55, 101, 81, 51, 223, 205, 219, 58, 218, 206, 167, 14, 56, 154, 43, 202, 247, 249, 200, 205, 182, 165, 148, 230, 248, 201, 174, 44, 242, 90, 9, 253, 41, 233, 60, 247, 173, 33, 30, 18, 41, 10, 31, 80, 180, 239, 240, 30, 219, 187, 245, 210, 151, 141, 221, 76, 89, 142, 79, 220, 178, 227, 155, 63, 247, 248, 25, 195, 175, 166, 152, 74, 170, 177, 70, 202, 179, 6, 239, 208, 216, 184, 153, 148, 62, 51, 12, 3, 237, 255, 58, 179, 217, 219, 228, 73, 66, 202, 250, 35, 219, 212, 77, 25, 39, 189, 231, 176, 20, 154, 241, 183, 236, 159, 195, 158, 35, 152, 232, 47, 210, 233, 22, 42, 240, 54, 56, 36, 236, 164, 92, 95, 70, 240, 247, 208, 82, 80, 178, 170, 64, 225, 142, 20, 165, 72, 93, 34, 9, 254, 235, 149, 38, 187, 167, 177, 28, 193, 78, 230, 235, 241, 179, 74, 140, 205, 220, 160, 198, 213, 241, 208, 247, 216, 241, 28, 12, 187, 85, 46, 54, 138, 223, 92, 161, 226, 55, 95, 178, 53, 211, 223, 72, 49, 154, 42, 80, 14, 56, 215, 213, 175, 153, 171, 51, 22, 6, 192, 216, 154, 53, 54, 250, 231, 69, 196, 218, 21, 182, 167, 34, 178, 187, 221, 162, 8, 71, 221, 50, 240, 181, 182, 8, 192, 254, 70, 41, 31, 238, 81, 216, 246, 68, 0, 151, 47, 234, 213, 70, 218, 5, 75, 6, 148, 233, 21, 38, 19, 195, 218, 35, 163, 18, 175, 74, 221, 61, 169, 48, 192, 29, 244, 91, 199, 107, 226, 47, 3, 196, 78, 239, 163, 157, 241, 159, 98, 216, 217, 44, 72, 224, 96, 240, 50, 240, 203, 80, 177, 56, 215, 95, 239, 229, 163, 159, 53, 98, 214, 211, 34, 198, 147, 80, 57, 254, 45, 149, 48, 15, 29, 17, 156, 56, 226, 14, 185, 241, 21, 1, 251, 248, 223, 150, 215, 35, 158, 223, 68, 165, 251, 202, 221, 221, 242, 168, 70, 4, 167, 214, 31, 251, 3, 233, 209, 110, 229, 247, 20, 235, 32, 154, 84, 159, 212, 5, 17, 18, 111, 231, 94, 50, 197, 169, 169, 223, 155, 69, 167, 171, 39, 149, 193, 221, 226, 250, 39, 250, 0, 44, 47, 21, 248, 48, 32, 81, 247, 233, 246, 216, 255, 241, 25, 240, 5, 39, 17, 6, 243, 45, 30, 69, 24, 230, 248, 4, 22, 18, 6, 5, 41, 32, 250, 253, 242, 1, 31, 87, 32, 233, 247, 11, 25, 21, 243, 11, 61, 79, 229, 249, 4, 252, 8, 53, 37, 18, 251, 41, 16, 247, 249, 236, 246, 14, 5, 1, 244, 88, 29, 27, 222, 6, 6, 28, 84, 19, 245, 15, 21, 18, 0, 18, 250, 73, 12, 230, 240, 248, 250, 255, 85, 13, 27, 89, 49, 244, 217, 8, 243, 6, 233, 224, 21, 241, 241, 174, 241, 9, 7, 66, 50, 241, 214, 13, 3, 22, 229, 237, 47, 246, 242, 227, 1, 249, 10, 27, 31, 29, 176, 255, 241, 10, 213, 211, 31, 1, 13, 243, 27, 14, 244, 43, 37, 35, 205, 46, 2, 42, 5, 239, 56, 1, 28, 50, 48, 10, 2, 65, 67, 251, 223, 35, 237, 30, 5, 211, 39, 12, 249, 212, 39, 246, 25, 51, 71, 16, 208, 48, 243, 227, 0, 254, 64, 8, 8, 221, 252, 240, 253, 85, 43, 11, 188, 13, 229, 18, 6, 255, 50, 227, 229, 251, 27, 254, 9, 31, 23, 33, 208, 239, 252, 20, 1, 0, 54, 244, 253, 254, 80, 240, 218, 48, 241, 51, 192, 228, 239, 251, 4, 11, 242, 2, 245, 14, 49, 11, 223, 49, 235, 253, 217, 226, 245, 13, 228, 207, 8, 227, 238, 222, 207, 10, 237, 31, 47, 229, 34, 1, 18, 68, 240, 34, 247, 1, 226, 180, 7, 19, 12, 26, 95, 24, 18, 235, 17, 28, 235, 255, 55, 17, 16, 23, 209, 249, 27, 73, 89, 31, 14, 4, 13, 4, 12, 245, 40, 27, 16, 227, 217, 27, 26, 43, 83, 13, 237, 6, 0, 48, 234, 232, 20, 9, 29, 234, 250, 19, 10, 56, 31, 224, 4, 7, 17, 48, 244, 235, 8, 20, 23, 241, 2, 0, 0, 61, 21, 5, 5, 15, 252, 26, 238, 247, 40, 33, 10, 14, 18, 248, 21, 39, 33, 48, 35, 24, 18, 254, 22, 219, 35, 31, 17, 2, 71, 22, 10, 12, 14, 252, 23, 10, 5, 47, 4, 235, 251, 28, 12, 255, 8, 254, 2, 240, 29, 33, 7, 18, 18, 250, 236, 243, 8, 253, 248, 0, 31, 21, 251, 238, 46, 33, 253, 255, 25, 7, 245, 249, 50, 244, 20, 30, 58, 31, 251, 244, 12, 36, 247, 7, 28, 254, 252, 14, 35, 26, 24, 39, 35, 244, 247, 235, 243, 248, 197, 1, 228, 224, 243, 15, 14, 10, 232, 219, 244, 12, 8, 6, 250, 249, 8, 16, 31, 30, 4, 37, 8, 15, 28, 26, 27, 15, 1, 5, 14, 20, 28, 220, 255, 79, 244, 48, 25, 18, 2, 4, 63, 246, 10, 19, 7, 241, 242, 40, 25, 23, 252, 73, 7, 27, 7, 75, 79, 9, 33, 31, 43, 8, 238, 46, 33, 10, 251, 79, 45, 15, 26, 6, 43, 243, 3, 227, 31, 22, 201, 36, 3, 252, 10, 72, 11, 12, 247, 217, 30, 239, 244, 235, 3, 222, 175, 232, 19, 213, 232, 72, 243, 245, 35, 32, 167, 242, 253, 24, 57, 254, 25, 233, 247, 46, 248, 233, 68, 29, 20, 255, 20, 7, 236, 243, 54, 239, 18, 18, 6, 62, 0, 7, 91, 16, 1, 249, 45, 237, 245, 25, 51, 250, 219, 5, 13, 54, 223, 4, 28, 241, 250, 254, 227, 246, 8, 24, 237, 238, 228, 4, 246, 234, 229, 233, 41, 6, 239, 32, 252, 246, 225, 9, 29, 210, 176, 215, 241, 254, 225, 11, 33, 247, 20, 60, 242, 29, 18, 1, 26, 15, 209, 26, 24, 41, 241, 236, 88, 13, 18, 75, 55, 247, 231, 29, 251, 222, 24, 13, 19, 59, 246, 14, 65, 42, 17, 38, 66, 30, 33, 60, 30, 201, 42, 38, 41, 19, 235, 18, 29, 35, 24, 54, 250, 46, 58, 63, 7, 233, 31, 23, 38, 241, 15, 48, 56, 55, 33, 101, 77, 45, 43, 49, 16, 196, 38, 33, 26, 5, 246, 49, 40, 45, 54, 127, 44, 3, 2, 25, 21, 251, 21, 29, 27, 214, 16, 216, 20, 41, 23, 37, 216, 9, 250, 14, 224, 14, 17, 5, 1, 218, 39, 228, 250, 38, 30, 23, 210, 17, 13, 48, 234, 246, 11, 5, 21, 62, 234, 241, 221, 50, 43, 255, 241, 13, 12, 35, 215, 226, 34, 22, 43, 49, 4, 220, 210, 19, 27, 220, 241, 17, 243, 63, 51, 225, 3, 1, 32, 130, 233, 13, 105, 39, 41, 253, 151, 11, 23, 13, 35, 240, 239, 4, 17, 163, 246, 251, 115, 54, 40, 13, 135, 47, 28, 200, 230, 40, 61, 69, 27, 18, 51, 23, 244, 22, 19, 68, 44, 19, 43, 204, 221, 21, 37, 48, 41, 228, 47, 34, 236, 24, 12, 57, 5, 42, 65, 249, 222, 249, 84, 24, 20, 18, 48, 31, 238, 40, 27, 35, 220, 24, 55, 199, 180, 248, 85, 5, 40, 222, 39, 0, 170, 30, 8, 203, 189, 33, 85, 174, 217, 39, 67, 12, 15, 222, 4, 46, 228, 26, 24, 24, 228, 17, 44, 212, 216, 25, 76, 240, 31, 45, 237, 230, 243, 38, 22, 51, 248, 38, 38, 201, 223, 13, 95, 51, 51, 245, 244, 251, 208, 46, 37, 33, 18, 59, 43, 226, 208, 232, 80, 45, 56, 242, 246, 0, 243, 42, 70, 48, 208, 55, 62, 240, 39, 230, 112, 63, 88, 19, 250, 244, 16, 72, 52, 46, 236, 55, 63, 183, 50, 3, 85, 52, 72, 245, 11, 44, 17, 34, 55, 44, 64, 51, 57, 32, 247, 23, 0, 63, 14, 212, 20, 218, 115, 55, 57, 102, 247, 15, 35, 196, 194, 26, 24, 61, 33, 214, 31, 19, 174, 8, 30, 46, 108, 252, 35, 169, 172, 248, 43, 51, 6, 235, 252, 65, 237, 244, 2, 102, 107, 0, 26, 170, 170, 255, 60, 50, 28, 207, 25, 66, 250, 238, 242, 79, 71, 14, 64, 189, 232, 37, 16, 22, 16, 223, 35, 32, 4, 249, 1, 100, 34, 245, 38, 129, 234, 21, 29, 15, 22, 254, 34, 26, 211, 252, 7, 39, 24, 25, 245, 218, 231, 246, 14, 26, 235, 13, 247, 53, 242, 248, 245, 65, 232, 14, 18, 252, 15, 36, 39, 17, 8, 225, 39, 81, 9, 250, 246, 90, 4, 235, 16, 67, 244, 3, 39, 41, 239, 255, 29, 41, 238, 7, 253, 26, 11, 249, 49, 53, 215, 255, 40, 12, 235, 235, 17, 55, 232, 232, 222, 39, 224, 240, 42, 53, 10, 245, 59, 231, 244, 240, 11, 3, 237, 1, 236, 41, 212, 42, 79, 225, 17, 52, 100, 247, 30, 63, 22, 30, 240, 244, 13, 125, 234, 245, 16, 18, 21, 51, 27, 14, 234, 228, 238, 235, 253, 222, 227, 45, 15, 243, 244, 9, 0, 48, 28, 53, 2, 167, 18, 226, 251, 220, 11, 37, 229, 7, 17, 14, 236, 32, 62, 28, 234, 20, 24, 202, 30, 247, 247, 211, 224, 3, 8, 29, 195, 36, 51, 6, 224, 8, 8, 224, 2, 4, 3, 11, 23, 33, 41, 11, 220, 248, 117, 246, 27, 70, 56, 213, 255, 254, 32, 127, 200, 32, 33, 39, 55, 98, 110, 63, 24, 63, 17, 225, 40, 41, 14, 53, 124, 31, 16, 233, 230, 31, 37, 52, 5, 201, 40, 45, 214, 255, 26, 55, 3, 18, 34, 33, 227, 27, 254, 15, 4, 190, 8, 17, 169, 30, 53, 76, 254, 16, 30, 248, 224, 51, 67, 45, 0, 210, 21, 73, 225, 39, 245, 12, 83, 22, 64, 12, 38, 44, 47, 24, 34, 46, 54, 52, 223, 23, 11, 34, 59, 17, 22, 17, 8, 86, 75, 43, 23, 56, 35, 27, 29, 30, 254, 221, 27, 14, 253, 28, 244, 252, 48, 242, 11, 240, 246, 25, 138, 223, 232, 179, 220, 1, 248, 1, 19, 38, 212, 250, 231, 213, 236, 7, 214, 209, 27, 5, 170, 232, 185, 192, 21, 45, 238, 231, 236, 30, 250, 233, 8, 235, 242, 192, 58, 238, 201, 204, 23, 41, 1, 215, 222, 42, 12, 225, 191, 195, 217, 166, 192, 230, 238, 202, 15, 63, 239, 244, 219, 32, 4, 232, 3, 228, 208, 137, 221, 139, 9, 94, 75, 243, 212, 84, 79, 148, 81, 108, 150, 58, 71, 194, 23, 196, 136, 87, 168, 143, 229, 94, 230, 247, 231, 213, 2, 237, 219, 78, 24, 43, 180, 61, 200, 91, 33, 133, 177, 81, 138, 13, 92, 137, 174, 81, 145, 19, 9, 245, 184, 240, 6, 53, 233, 238, 155, 185, 77, 142, 229, 14, 186, 15, 239, 238, 24, 87, 6, 249, 97, 168, 5, 41, 91, 185, 239, 64, 186, 86, 45, 140, 223, 218, 179, 22, 224, 215, 156, 26, 69, 236, 178, 22, 165, 175, 230, 227, 249, 76, 89, 130, 23, 220, 0, 238, 216, 249, 55, 73, 55, 235, 149, 63, 236, 230, 243, 77, 93, 15, 7, 31, 244, 22, 220, 188, 209, 210, 245, 58, 131, 59, 166, 82, 200, 225, 87, 0, 44, 233, 4, 80, 208, 94, 181, 186, 134, 254, 104, 49, 90, 199, 57, 194, 156, 35, 222, 38, 41, 158, 81, 187, 69, 34, 213, 136, 163, 84, 75, 17, 6, 181, 230, 149, 17, 136, 199, 68, 40, 198, 114, 14, 242, 209, 204, 59, 233, 16, 33, 168, 219, 236, 29, 223, 58, 93, 89, 8, 11, 213, 165, 55, 20, 164, 203, 199, 12, 98, 229, 212, 206, 46, 13, 88, 142, 45, 92, 163, 154, 34, 88, 252, 163, 58, 33, 68, 191, 23, 233, 196, 170, 94, 236, 18, 62, 191, 4, 226, 237, 130, 133, 31, 38, 67, 146, 227, 11, 78, 248, 24, 209, 72, 62, 32, 186, 216, 101, 253, 166, 12, 178, 224, 228, 252, 226, 151, 230, 206, 42, 55, 221, 216, 189, 23, 194, 56, 59, 39, 134, 59, 167, 23, 86, 56, 42, 165, 10, 62, 209, 197, 10, 77, 168, 159, 67, 51, 253, 112, 141, 31, 78, 167, 78, 82, 167, 87, 131, 50, 218, 25, 9, 190, 7, 89, 27, 138, 229, 157, 45, 222, 78, 241, 7, 165, 75, 139, 87, 167, 22, 243, 250, 134, 201, 1, 169, 226, 51, 199, 77, 189, 188, 229, 189, 16, 33, 89, 155, 47, 159, 59, 27, 42, 43, 198, 60, 20, 192, 228, 214, 226, 240, 17, 129, 15, 159, 24, 41, 235, 250, 81, 237, 198, 99, 180, 50, 190, 216, 78, 151, 37, 48, 220, 85, 25, 148, 135, 186, 192, 158, 221, 230, 157, 157, 203, 87, 84, 254, 197, 4, 74, 7, 233, 30, 77, 229, 62, 70, 206, 50, 233, 216, 246, 78, 170, 27, 45, 190, 148, 241, 97, 247, 16, 234, 47, 149, 32, 53, 39, 249, 142, 87, 252, 91, 19, 211, 136, 190, 54, 196, 94, 47, 46, 90, 180, 45, 162, 62, 184, 186, 24, 68, 35, 71, 145, 232, 185, 90, 101, 68, 186, 86, 62, 76, 2, 160, 21, 201, 164, 230, 235, 80, 52, 192, 87, 20, 209, 255, 238, 183, 13, 152, 101, 12, 236, 180, 153, 158, 163, 13, 62, 24, 12, 251, 182, 170, 159, 201, 210, 155, 152, 165, 14, 193, 234, 154, 203, 145, 11, 68, 80, 40, 86, 62, 92, 185, 68, 183, 246, 1, 254, 95, 250, 198, 172, 151, 239, 83, 89, 55, 176, 68, 50, 185, 13, 170, 238, 90, 1, 41, 33, 198, 203, 249, 185, 161, 5, 57, 2, 224, 34, 238, 139, 27, 105, 84, 204, 154, 255, 16, 159, 253, 28, 138, 164, 168, 91, 211, 151, 37, 199, 42, 7, 244, 90, 211, 241, 228, 53, 224, 166, 93, 65, 60, 220, 182, 216, 204, 226, 79, 218, 66, 138, 199, 222, 33, 152, 238, 161, 177, 159, 246, 166, 139, 83, 45, 32, 226, 83, 184, 108, 55, 175, 199, 233, 84, 30, 156, 51, 240, 98, 83, 143, 34, 12, 57, 224, 6, 136, 241, 92, 180, 82, 234, 187, 57, 219, 200, 175, 47, 84, 62, 194, 198, 231, 39, 61, 219, 239, 176, 94, 196, 173, 39, 94, 168, 175, 237, 36, 14, 215, 150, 14, 242, 160, 154, 29, 16, 154, 27, 233, 212, 140, 61, 94, 32, 148, 4, 22, 55, 201, 177, 95, 223, 177, 253, 235, 144, 19, 43, 58, 35, 233, 211, 190, 205, 213, 249, 170, 45, 40, 22, 252, 227, 4, 14, 247, 251, 252, 36, 255, 16, 32, 18, 65, 16, 239, 238, 238, 18, 6, 25, 255, 21, 13, 32, 20, 3, 30, 5, 44, 4, 243, 13, 13, 11, 4, 255, 2, 38, 8, 246, 6, 9, 250, 30, 56, 40, 254, 5, 36, 5, 246, 1, 241, 63, 52, 5, 246, 253, 19, 3, 35, 65, 245, 17, 27, 35, 0, 1, 241, 238, 18, 12, 255, 249, 104, 14, 8, 236, 245, 245, 23, 60, 245, 13, 2, 245, 7, 1, 253, 237, 73, 250, 12, 228, 1, 244, 6, 69, 255, 22, 57, 37, 6, 208, 18, 10, 21, 239, 225, 30, 253, 12, 211, 224, 2, 29, 60, 20, 8, 203, 248, 9, 13, 233, 233, 13, 246, 6, 211, 11, 4, 4, 28, 49, 22, 188, 251, 239, 20, 241, 221, 16, 247, 8, 245, 39, 15, 244, 39, 34, 22, 183, 21, 239, 54, 2, 10, 48, 15, 7, 36, 54, 24, 235, 36, 45, 237, 216, 35, 7, 25, 7, 216, 33, 15, 240, 230, 18, 1, 5, 44, 65, 8, 241, 30, 11, 245, 10, 9, 46, 251, 247, 245, 16, 254, 14, 54, 58, 7, 222, 241, 230, 255, 251, 236, 29, 244, 237, 2, 16, 231, 245, 41, 50, 30, 197, 7, 235, 31, 254, 8, 20, 223, 224, 5, 49, 228, 243, 44, 252, 32, 188, 228, 241, 12, 20, 28, 9, 247, 229, 15, 14, 3, 241, 67, 7, 27, 220, 246, 234, 29, 237, 222, 232, 229, 5, 244, 219, 235, 240, 6, 33, 254, 17, 249, 250, 54, 239, 40, 237, 255, 243, 181, 9, 240, 243, 41, 65, 4, 33, 224, 246, 48, 252, 236, 54, 13, 2, 24, 205, 9, 31, 78, 66, 22, 252, 12, 250, 7, 243, 231, 35, 11, 11, 216, 241, 24, 8, 47, 66, 246, 241, 245, 7, 34, 239, 218, 25, 255, 4, 226, 238, 14, 4, 28, 21, 254, 17, 9, 1, 25, 12, 241, 9, 20, 5, 244, 230, 252, 11, 71, 15, 231, 6, 1, 8, 28, 250, 226, 64, 20, 18, 12, 234, 21, 30, 25, 10, 39, 39, 15, 5, 240, 11, 203, 13, 21, 19, 247, 48, 255, 251, 32, 12, 14, 26, 23, 14, 47, 234, 209, 17, 26, 8, 227, 18, 18, 8, 218, 33, 15, 252, 253, 20, 254, 252, 212, 9, 3, 11, 16, 3, 248, 10, 4, 40, 0, 11, 254, 10, 22, 242, 238, 35, 255, 25, 251, 45, 18, 242, 239, 9, 2, 235, 30, 7, 14, 254, 243, 20, 3, 27, 21, 20, 241, 249, 251, 248, 244, 217, 6, 232, 210, 243, 16, 29, 248, 249, 222, 2, 15, 2, 243, 20, 2, 5, 16, 26, 19, 23, 25, 2, 24, 17, 13, 32, 21, 247, 16, 0, 10, 34, 218, 10, 68, 241, 52, 31, 22, 10, 11, 53, 3, 21, 29, 255, 4, 8, 8, 28, 15, 14, 94, 16, 9, 1, 61, 65, 252, 38, 30, 42, 16, 250, 41, 31, 3, 238, 52, 16, 3, 28, 26, 40, 234, 251, 247, 35, 17, 224, 22, 7, 250, 237, 65, 23, 20, 255, 206, 31, 241, 243, 254, 255, 212, 211, 234, 11, 228, 252, 47, 240, 255, 18, 24, 195, 255, 231, 18, 26, 234, 23, 230, 237, 33, 240, 236, 45, 10, 13, 246, 7, 249, 207, 250, 32, 240, 36, 10, 19, 45, 9, 21, 78, 3, 237, 255, 13, 246, 248, 19, 22, 247, 241, 250, 246, 23, 250, 229, 29, 2, 4, 21, 218, 0, 10, 34, 3, 244, 232, 7, 254, 247, 236, 247, 28, 2, 12, 15, 243, 14, 226, 14, 4, 223, 201, 240, 252, 251, 236, 2, 15, 11, 4, 33, 251, 1, 250, 14, 20, 22, 221, 7, 17, 31, 23, 2, 98, 7, 10, 84, 51, 9, 237, 24, 10, 240, 57, 17, 8, 34, 24, 2, 32, 28, 246, 38, 82, 20, 53, 75, 15, 238, 59, 39, 31, 253, 248, 42, 35, 4, 25, 56, 247, 29, 51, 55, 254, 240, 38, 27, 38, 5, 7, 63, 61, 45, 34, 98, 80, 37, 19, 69, 255, 219, 57, 30, 23, 7, 251, 43, 42, 40, 44, 127, 45, 229, 209, 246, 9, 226, 46, 242, 234, 229, 233, 230, 9, 228, 214, 239, 235, 220, 219, 253, 2, 244, 32, 240, 230, 231, 203, 222, 6, 200, 223, 250, 237, 218, 194, 224, 7, 226, 41, 242, 223, 232, 1, 244, 34, 233, 219, 4, 24, 222, 209, 244, 13, 10, 17, 224, 229, 253, 250, 243, 37, 221, 229, 17, 10, 228, 19, 238, 213, 16, 7, 250, 243, 94, 10, 3, 194, 230, 0, 36, 102, 247, 11, 7, 240, 255, 31, 237, 245, 54, 17, 245, 210, 244, 230, 11, 89, 9, 9, 11, 12, 231, 254, 1, 255, 5, 245, 249, 246, 0, 9, 224, 231, 8, 5, 23, 30, 234, 3, 4, 4, 0, 6, 16, 27, 8, 3, 254, 4, 7, 252, 252, 25, 14, 246, 17, 15, 255, 250, 1, 27, 4, 255, 15, 31, 253, 254, 25, 5, 17, 228, 19, 252, 38, 14, 25, 25, 253, 10, 52, 40, 31, 22, 17, 47, 240, 254, 30, 28, 97, 3, 4, 9, 22, 8, 246, 44, 2, 40, 45, 58, 14, 253, 30, 26, 41, 15, 14, 39, 13, 11, 255, 37, 27, 72, 60, 85, 22, 216, 31, 21, 63, 13, 24, 76, 10, 39, 251, 35, 6, 41, 47, 72, 39, 214, 30, 43, 55, 9, 20, 65, 27, 9, 248, 61, 22, 22, 82, 26, 41, 229, 34, 31, 34, 8, 49, 19, 13, 24, 25, 47, 20, 5, 99, 25, 17, 243, 19, 19, 40, 242, 21, 21, 18, 31, 236, 241, 25, 18, 36, 48, 25, 24, 6, 45, 65, 253, 52, 244, 241, 250, 191, 13, 15, 43, 54, 83, 252, 13, 16, 8, 58, 1, 238, 60, 15, 8, 222, 208, 11, 47, 84, 90, 39, 8, 247, 20, 62, 14, 245, 47, 24, 23, 245, 252, 27, 26, 90, 88, 23, 4, 245, 26, 90, 0, 7, 18, 10, 17, 1, 254, 16, 7, 86, 35, 248, 0, 4, 7, 22, 8, 242, 9, 16, 250, 231, 227, 26, 5, 127, 46, 254, 12, 19, 251, 4, 246, 250, 86, 19, 4, 232, 246, 238, 35, 52, 37, 42, 33, 239, 20, 252, 255, 227, 4, 249, 11, 230, 12, 242, 242, 78, 20, 6, 27, 226, 4, 24, 238, 233, 251, 12, 247, 223, 245, 247, 2, 253, 20, 3, 15, 230, 243, 238, 245, 4, 247, 238, 249, 246, 252, 254, 230, 6, 22, 4, 29, 253, 251, 250, 253, 237, 4, 254, 242, 15, 253, 5, 242, 252, 28, 247, 27, 251, 10, 16, 7, 14, 35, 246, 237, 4, 21, 221, 235, 13, 7, 9, 252, 233, 246, 235, 20, 17, 10, 248, 247, 32, 38, 234, 20, 6, 232, 255, 0, 229, 19, 247, 7, 47, 238, 245, 246, 239, 240, 241, 252, 11, 210, 243, 26, 222, 28, 250, 27, 61, 214, 2, 222, 246, 234, 238, 253, 247, 26, 248, 10, 244, 254, 245, 4, 54, 11, 5, 227, 22, 18, 2, 244, 231, 38, 235, 237, 0, 248, 235, 27, 65, 50, 7, 230, 15, 216, 238, 22, 8, 22, 23, 13, 5, 252, 225, 19, 52, 0, 3, 4, 24, 38, 241, 5, 3, 209, 40, 214, 228, 21, 215, 5, 35, 203, 231, 254, 36, 19, 237, 0, 5, 243, 13, 23, 243, 9, 3, 3, 3, 240, 246, 223, 251, 45, 215, 9, 227, 231, 34, 15, 9, 6, 251, 11, 24, 247, 223, 218, 242, 14, 229, 234, 244, 3, 15, 234, 246, 243, 216, 18, 247, 255, 203, 228, 2, 172, 222, 219, 6, 229, 1, 4, 242, 230, 191, 248, 228, 249, 213, 231, 15, 215, 227, 14, 250, 199, 12, 177, 239, 17, 203, 21, 2, 196, 222, 238, 44, 65, 230, 6, 236, 0, 33, 5, 250, 0, 11, 13, 15, 6, 248, 251, 46, 13, 249, 39, 218, 201, 48, 22, 5, 21, 235, 59, 24, 238, 248, 233, 8, 35, 11, 30, 17, 229, 19, 42, 18, 250, 232, 28, 23, 251, 0, 0, 52, 14, 255, 19, 4, 244, 22, 23, 247, 23, 230, 29, 38, 236, 0, 3, 53, 25, 1, 0, 4, 232, 18, 44, 9, 22, 219, 23, 33, 240, 7, 4, 67, 26, 240, 5, 16, 4, 26, 45, 247, 7, 54, 23, 64, 8, 238, 250, 223, 245, 6, 4, 3, 24, 37, 40, 7, 247, 32, 3, 77, 27, 251, 243, 8, 9, 251, 7, 0, 27, 26, 0, 252, 242, 242, 39, 63, 26, 248, 238, 29, 13, 16, 231, 236, 41, 51, 255, 12, 236, 15, 8, 61, 56, 9, 15, 22, 10, 238, 0, 237, 237, 24, 254, 244, 4, 127, 16, 14, 244, 236, 1, 6, 86, 240, 249, 18, 13, 10, 13, 5, 9, 101, 13, 249, 237, 242, 0, 8, 87, 245, 9, 72, 47, 8, 223, 10, 240, 7, 236, 230, 18, 9, 247, 178, 234, 6, 21, 75, 34, 248, 202, 22, 17, 11, 240, 8, 27, 254, 15, 204, 32, 18, 1, 25, 32, 56, 192, 4, 16, 10, 239, 218, 11, 12, 1, 237, 24, 16, 247, 65, 43, 255, 187, 47, 3, 52, 252, 237, 55, 253, 26, 35, 43, 19, 244, 59, 70, 233, 213, 25, 1, 68, 255, 230, 42, 13, 18, 204, 16, 4, 11, 77, 76, 33, 203, 22, 255, 241, 247, 16, 75, 227, 254, 218, 36, 247, 13, 72, 71, 32, 208, 12, 236, 5, 4, 4, 38, 0, 255, 237, 38, 252, 2, 57, 41, 33, 196, 2, 241, 33, 249, 251, 32, 244, 223, 5, 83, 4, 239, 30, 6, 59, 185, 250, 225, 21, 12, 32, 241, 227, 2, 16, 35, 255, 245, 83, 2, 22, 207, 226, 218, 20, 254, 208, 246, 254, 9, 240, 218, 237, 4, 21, 49, 234, 50, 1, 10, 72, 251, 45, 239, 3, 239, 179, 12, 6, 12, 36, 93, 251, 35, 236, 246, 58, 243, 233, 75, 19, 12, 252, 205, 17, 8, 92, 101, 28, 28, 249, 18, 23, 253, 236, 58, 250, 25, 230, 233, 22, 254, 51, 87, 9, 244, 4, 23, 73, 241, 219, 46, 0, 30, 248, 225, 25, 255, 54, 27, 240, 250, 244, 245, 40, 250, 240, 23, 253, 253, 245, 253, 251, 16, 80, 19, 232, 16, 30, 17, 2, 0, 236, 50, 254, 31, 3, 239, 20, 9, 49, 18, 28, 61, 251, 27, 243, 249, 204, 26, 0, 12, 236, 68, 13, 13, 49, 8, 242, 23, 248, 253, 41, 226, 200, 25, 15, 27, 222, 24, 243, 12, 239, 10, 254, 2, 247, 248, 1, 243, 213, 15, 7, 5, 252, 40, 6, 26, 6, 15, 7, 12, 32, 2, 7, 245, 213, 47, 12, 3, 17, 52, 20, 233, 253, 6, 5, 3, 21, 14, 11, 242, 251, 16, 4, 251, 44, 32, 223, 215, 253, 243, 2, 206, 5, 252, 237, 6, 28, 21, 14, 2, 192, 249, 32, 41, 253, 22, 254, 37, 38, 33, 6, 0, 53, 254, 17, 28, 253, 17, 8, 13, 0, 27, 20, 15, 243, 20, 78, 12, 42, 41, 21, 246, 26, 50, 247, 24, 13, 1, 252, 3, 42, 25, 4, 246, 71, 252, 248, 29, 67, 77, 248, 41, 17, 63, 243, 255, 30, 29, 241, 14, 90, 26, 17, 14, 18, 37, 246, 232, 236, 32, 27, 213, 27, 246, 226, 233, 80, 43, 253, 233, 216, 35, 0, 248, 238, 229, 229, 184, 226, 3, 209, 243, 48, 221, 253, 22, 24, 187, 245, 244, 12, 43, 248, 15, 218, 241, 76, 1, 249, 85, 29, 18, 5, 8, 232, 212, 241, 29, 225, 14, 22, 6, 53, 245, 253, 86, 11, 250, 241, 12, 247, 10, 51, 54, 225, 227, 14, 247, 50, 227, 246, 49, 254, 10, 6, 235, 246, 230, 19, 240, 235, 245, 4, 251, 236, 251, 238, 55, 2, 252, 15, 255, 246, 244, 1, 30, 234, 176, 215, 0, 248, 4, 18, 35, 239, 5, 44, 3, 26, 13, 253, 25, 33, 230, 25, 18, 63, 19, 1, 105, 25, 29, 101, 34, 8, 4, 5, 12, 243, 37, 9, 42, 73, 31, 11, 65, 9, 240, 56, 72, 41, 41, 89, 38, 233, 55, 25, 16, 4, 22, 33, 14, 22, 45, 69, 253, 39, 49, 77, 9, 243, 54, 51, 21, 2, 254, 88, 71, 25, 43, 110, 89, 23, 51, 65, 6, 219, 67, 23, 17, 25, 242, 55, 33, 29, 39, 111, 41, 32, 229, 234, 210, 227, 252, 4, 6, 49, 6, 227, 30, 205, 254, 141, 157, 192, 187, 149, 175, 31, 57, 213, 160, 41, 178, 149, 252, 151, 50, 207, 226, 194, 63, 232, 210, 154, 224, 17, 206, 238, 214, 8, 36, 188, 166, 178, 1, 224, 210, 211, 9, 146, 62, 212, 174, 10, 70, 44, 25, 78, 32, 242, 225, 27, 68, 51, 35, 8, 228, 39, 66, 76, 163, 9, 92, 180, 250, 155, 34, 241, 235, 176, 181, 37, 152, 138, 47, 175, 203, 8, 64, 158, 66, 50, 235, 224, 185, 173, 208, 199, 225, 22, 183, 217, 162, 150, 229, 255, 214, 24, 105, 198, 27, 181, 92, 151, 216, 91, 154, 222, 8, 36, 85, 83, 158, 227, 19, 46, 89, 27, 1, 229, 129, 87, 156, 34, 47, 74, 191, 227, 147, 173, 51, 161, 239, 225, 209, 192, 189, 149, 19, 207, 40, 202, 223, 60, 215, 179, 233, 43, 60, 207, 37, 226, 227, 83, 170, 52, 82, 130, 165, 168, 76, 144, 219, 33, 209, 28, 255, 236, 51, 1, 90, 61, 246, 76, 35, 146, 15, 81, 214, 57, 79, 35, 61, 250, 46, 212, 47, 196, 250, 6, 241, 89, 167, 191, 211, 89, 20, 26, 249, 181, 165, 13, 91, 217, 132, 231, 12, 87, 44, 74, 62, 249, 152, 153, 84, 11, 220, 193, 216, 97, 2, 179, 34, 80, 13, 249, 11, 40, 220, 47, 164, 218, 182, 62, 32, 78, 11, 231, 241, 167, 75, 200, 25, 235, 209, 192, 93, 43, 131, 186, 4, 212, 55, 226, 210, 74, 38, 188, 56, 182, 4, 14, 147, 190, 183, 149, 20, 149, 17, 24, 170, 203, 152, 188, 157, 206, 230, 157, 54, 51, 136, 39, 199, 225, 196, 218, 228, 173, 146, 132, 170, 202, 193, 206, 217, 80, 4, 253, 210, 51, 216, 30, 161, 24, 84, 204, 30, 25, 17, 165, 156, 206, 164, 190, 99, 43, 182, 54, 147, 188, 87, 159, 19, 150, 217, 94, 207, 189, 7, 2, 155, 154, 40, 46, 24, 100, 189, 2, 89, 47, 71, 87, 85, 173, 253, 157, 164, 57, 136, 140, 18, 56, 177, 2, 152, 50, 61, 159, 35, 211, 168, 215, 80, 93, 79, 57, 61, 40, 16, 158, 43, 5, 203, 206, 186, 155, 75, 47, 75, 166, 201, 62, 31, 10, 61, 20, 191, 254, 177, 202, 96, 235, 197, 20, 197, 15, 204, 0, 50, 246, 25, 195, 168, 98, 177, 163, 159, 211, 40, 153, 22, 242, 190, 226, 162, 63, 173, 66, 192, 254, 33, 249, 179, 207, 80, 229, 209, 3, 227, 67, 17, 153, 222, 80, 84, 152, 74, 195, 162, 213, 224, 204, 2, 196, 148, 139, 72, 28, 86, 224, 19, 16, 48, 163, 35, 57, 4, 43, 57, 216, 140, 41, 17, 41, 223, 192, 182, 29, 239, 52, 181, 170, 144, 26, 200, 23, 53, 61, 215, 98, 156, 223, 181, 228, 255, 251, 31, 149, 202, 43, 10, 186, 202, 29, 97, 246, 22, 254, 170, 73, 37, 145, 194, 139, 14, 37, 180, 17, 172, 173, 174, 39, 26, 60, 175, 221, 85, 246, 225, 57, 15, 176, 254, 56, 34, 238, 209, 184, 163, 156, 37, 243, 194, 10, 47, 35, 187, 235, 19, 18, 83, 81, 2, 19, 193, 136, 33, 16, 153, 213, 26, 178, 44, 64, 83, 64, 158, 56, 79, 11, 162, 150, 239, 34, 162, 74, 253, 129, 158, 242, 179, 217, 4, 146, 196, 27, 174, 54, 33, 202, 246, 89, 92, 11, 178, 250, 179, 177, 137, 26, 201, 167, 0, 63, 194, 12, 4, 207, 159, 140, 228, 34, 160, 197, 0, 14, 201, 35, 200, 171, 135, 152, 24, 6, 207, 10, 169, 243, 184, 224, 137, 202, 215, 76, 47, 173, 66, 196, 61, 4, 18, 233, 224, 32, 252, 218, 56, 194, 36, 178, 218, 21, 220, 89, 44, 57, 212, 245, 176, 231, 6, 5, 147, 59, 231, 178, 182, 208, 185, 172, 216, 211, 217, 61, 27, 131, 30, 245, 200, 14, 213, 8, 87, 68, 191, 150, 48, 81, 173, 0, 175, 216, 82, 185, 166, 65, 24, 78, 77, 83, 56, 166, 27, 178, 227, 47, 146, 51, 28, 66, 200, 11, 241, 91, 173, 221, 186, 43, 31, 189, 5, 188, 221, 150, 232, 174, 247, 80, 171, 242, 166, 171, 24, 75, 60, 198, 173, 61, 67, 198, 222, 250, 51, 64, 12, 3, 198, 159, 229, 148, 164, 166, 67, 25, 51, 189, 167, 17, 51, 251, 162, 164, 170, 189, 158, 201, 246, 214, 0, 53, 190, 232, 229, 25, 168, 248, 36, 72, 15, 218, 79, 76, 22, 48, 79, 240, 153, 193, 57, 171, 199, 3, 162, 53, 145, 35, 43, 210, 241, 43, 171, 200, 202, 214, 232, 9, 177, 206, 180, 67, 67, 153, 79, 243, 183, 168, 224, 221, 145, 8, 172, 253, 33, 36, 182, 204, 77, 23, 241, 252, 250, 214, 158, 21, 165, 3, 246, 86, 163, 29, 224, 191, 7, 241, 64, 227, 199, 179, 213, 149, 8, 21, 224, 250, 2, 139, 220, 2, 185, 218, 22, 91, 34, 32, 207, 143, 236, 193, 220, 51, 213, 224, 251, 199, 14, 236, 220, 164, 222, 106, 33, 184, 49, 17, 91, 181, 195, 73, 53, 63, 240, 30, 56, 29, 232, 244, 224, 77, 171, 154, 79, 236, 18, 242, 26, 78, 22, 80, 67, 182, 222, 210, 210, 49, 230, 91, 18, 235, 71, 142, 156, 245, 38, 7, 204, 77, 13, 168, 223, 42, 30, 251, 28, 58, 208, 155, 52, 228, 189, 36, 76, 35, 24, 179, 198, 5, 9, 172, 240, 22, 35, 0, 57, 173, 159, 61, 69, 36, 253, 13, 201, 78, 57, 21, 146, 222, 195, 240, 246, 153, 219, 149, 144, 188, 210, 6, 236, 153, 3, 195, 255, 172, 207, 184, 198, 211, 191, 46, 182, 14, 6, 184, 148, 138, 223, 252, 152, 64, 56, 245, 237, 17, 155, 242, 236, 192, 8, 37, 45, 160, 3, 12, 200, 3, 12, 197, 163, 218, 255, 211, 194, 69, 166, 182, 54, 59, 72, 148, 89, 213, 129, 239, 165, 163, 83, 52, 159, 161, 56, 237, 79, 248, 55, 90, 231, 165, 28, 152, 167, 188, 42, 177, 244, 229, 212, 210, 240, 177, 1, 65, 251, 222, 192, 26, 244, 154, 91, 156, 229, 200, 236, 182, 211, 70, 208, 25, 56, 172, 154, 218, 50, 37, 60, 226, 201, 65, 72, 30, 251, 2, 18, 236, 232, 21, 73, 241, 229, 47, 49, 192, 159, 87, 164, 233, 10, 246, 142, 185, 39, 20, 28, 17, 18, 166, 34, 15, 211, 65, 187, 36, 78, 75, 214, 23, 46, 184, 19, 244, 221, 185, 210, 227, 82, 51, 86, 82, 172, 235, 159, 58, 219, 213, 221, 236, 53, 178, 49, 222, 243, 247, 175, 32, 89, 27, 49, 216, 86, 192, 26, 251, 170, 189, 30, 171, 195, 75, 41, 215, 223, 228, 15, 182, 149, 63, 34, 148, 90, 175, 91, 161, 59, 61, 157, 64, 177, 253, 42, 149, 149, 11, 168, 6, 212, 18, 164, 71, 155, 216, 162, 201, 255, 37, 201, 15, 247, 223, 159, 55, 186, 41, 23, 145, 68, 26, 174, 22, 13, 242, 70, 224, 6, 245, 206, 186, 184, 254, 74, 197, 72, 42, 9, 193, 154, 18, 200, 19, 153, 223, 33, 187, 55, 72, 154, 227, 18, 191, 164, 26, 16, 230, 197, 204, 207, 250, 218, 78, 148, 18, 209, 254, 53, 217, 39, 98, 55, 238, 226, 234, 76, 13, 176, 58, 194, 168, 214, 17, 187, 171, 22, 75, 70, 29, 255, 29, 209, 28, 201, 30, 82, 211, 51, 50, 47, 73, 224, 90, 167, 177, 194, 168, 24, 174, 33, 161, 178, 254, 73, 229, 190, 21, 73, 10, 211, 169, 70, 80, 8, 239, 16, 173, 26, 180, 26, 1, 6, 192, 84, 49, 81, 5, 240, 40, 53, 87, 225, 209, 254, 35, 6, 50, 255, 65, 10, 94, 160, 222, 68, 144, 66, 45, 18, 244, 174, 7, 210, 169, 80, 147, 18, 219, 173, 217, 149, 232, 180, 195, 203, 73, 207, 73, 15, 57, 72, 26, 238, 66, 167, 177, 56, 149, 22, 69, 55, 46, 1, 208, 163, 253, 198, 77, 167, 171, 10, 64, 3, 73, 148, 9, 245, 172, 21, 3, 188, 133, 238, 22, 218, 46, 38, 249, 10, 18, 17, 49, 204, 218, 29, 15, 17, 231, 21, 22, 222, 48, 33, 255, 253, 39, 13, 59, 184, 231, 14, 11, 10, 247, 22, 28, 236, 25, 51, 224, 243, 24, 8, 180, 251, 218, 45, 1, 2, 222, 15, 24, 222, 32, 30, 238, 241, 25, 15, 197, 5, 1, 45, 7, 11, 2, 51, 254, 23, 234, 202, 16, 22, 13, 11, 43, 19, 13, 188, 245, 0, 251, 51, 255, 13, 254, 196, 255, 37, 14, 15, 52, 20, 7, 199, 244, 250, 6, 69, 21, 238, 45, 57, 242, 3, 8, 10, 32, 241, 254, 17, 22, 15, 248, 244, 4, 1, 64, 37, 14, 4, 10, 28, 46, 246, 6, 42, 28, 23, 244, 30, 251, 227, 31, 57, 35, 247, 19, 6, 246, 249, 21, 59, 254, 230, 27, 26, 246, 239, 39, 37, 17, 7, 6, 20, 255, 13, 48, 52, 15, 3, 51, 59, 6, 249, 42, 253, 12, 20, 15, 26, 19, 33, 29, 244, 254, 6, 29, 59, 9, 10, 251, 252, 17, 14, 62, 12, 53, 29, 50, 224, 250, 0, 13, 77, 11, 34, 31, 50, 15, 2, 34, 11, 246, 43, 50, 39, 6, 6, 252, 35, 244, 36, 75, 13, 12, 243, 20, 13, 253, 19, 45, 11, 250, 8, 250, 11, 226, 32, 40, 13, 27, 7, 0, 8, 213, 249, 50, 249, 232, 218, 16, 56, 225, 27, 31, 62, 25, 249, 21, 5, 53, 14, 24, 30, 238, 3, 9, 248, 222, 229, 7, 183, 239, 54, 248, 244, 11, 17, 48, 159, 191, 193, 212, 253, 237, 233, 72, 34, 220, 45, 223, 221, 18, 6, 243, 11, 230, 234, 240, 205, 206, 230, 19, 20, 13, 10, 186, 226, 208, 23, 235, 225, 237, 230, 230, 184, 219, 237, 253, 9, 233, 5, 189, 243, 253, 0, 225, 241, 244, 240, 247, 208, 162, 206, 254, 244, 242, 18, 186, 228, 252, 4, 221, 229, 207, 216, 226, 189, 187, 200, 1, 24, 243, 20, 213, 195, 242, 232, 225, 9, 245, 208, 236, 203, 195, 191, 3, 2, 251, 53, 176, 193, 0, 255, 238, 229, 219, 222, 236, 217, 184, 155, 16, 230, 194, 14, 179, 188, 4, 0, 242, 234, 190, 230, 234, 181, 154, 170, 6, 5, 232, 37, 138, 232, 237, 13, 242, 241, 187, 220, 240, 197, 163, 190, 7, 245, 213, 38, 129, 245, 252, 253, 242, 242, 196, 226, 247, 225, 153, 187, 11, 14, 228, 22, 175, 243, 235, 249, 14, 243, 202, 204, 252, 204, 153, 185, 14, 26, 244, 41, 189, 212, 156, 0, 14, 14, 207, 161, 40, 71, 169, 179, 250, 214, 219, 21, 177, 205, 241, 14, 15, 210, 159, 196, 251, 201, 173, 202, 247, 232, 199, 28, 168, 209, 247, 12, 43, 202, 158, 170, 231, 222, 165, 209, 10, 249, 226, 29, 161, 231, 35, 255, 43, 241, 162, 169, 29, 236, 179, 186, 248, 4, 209, 26, 178, 200, 37, 7, 10, 2, 166, 172, 24, 166, 173, 245, 251, 20, 30, 42, 217, 26, 189, 251, 14, 21, 218, 202, 42, 54, 153, 216, 4, 200, 27, 244, 238, 240, 202, 243, 17, 191, 195, 196, 21, 18, 224, 222, 17, 241, 253, 42, 236, 214, 27, 252, 211, 254, 226, 241, 253, 45, 206, 203, 5, 252, 243, 40, 252, 207, 10, 2, 223, 243, 212, 212, 250, 28, 236, 218, 2, 212, 248, 19, 238, 249, 13, 233, 203, 4, 240, 245, 19, 219, 219, 212, 5, 216, 244, 23, 242, 234, 236, 242, 210, 229, 238, 230, 20, 253, 13, 252, 5, 242, 14, 214, 48, 243, 9, 6, 223, 8, 28, 33, 54, 93, 255, 233, 17, 17, 21, 44, 44, 7, 0, 2, 224, 54, 27, 36, 51, 74, 51, 50, 33, 244, 14, 38, 41, 48, 249, 17, 1, 1, 45, 50, 28, 83, 61, 46, 16, 11, 255, 66, 68, 57, 19, 12, 26, 248, 36, 64, 64, 78, 62, 95, 37, 1, 36, 47, 66, 85, 30, 25, 34, 19, 95, 89, 77, 92, 51, 53, 36, 250, 11, 45, 74, 74, 27, 11, 25, 27, 88, 77, 68, 111, 3, 24, 10, 14, 25, 41, 13, 17, 37, 253, 63, 0, 230, 237, 229, 247, 10, 28, 248, 39, 20, 23, 9, 240, 62, 0, 50, 15, 231, 239, 245, 10, 16, 238, 227, 50, 33, 18, 250, 236, 230, 44, 77, 51, 235, 234, 9, 16, 8, 250, 2, 41, 63, 250, 5, 233, 13, 37, 59, 49, 12, 4, 20, 31, 9, 12, 239, 231, 39, 241, 5, 252, 116, 29, 255, 219, 237, 254, 19, 101, 10, 4, 252, 242, 244, 241, 15, 8, 87, 1, 255, 209, 245, 17, 235, 87, 236, 22, 83, 47, 244, 227, 13, 235, 254, 228, 255, 26, 4, 240, 195, 238, 0, 34, 72, 24, 1, 202, 247, 23, 41, 244, 3, 44, 251, 253, 230, 26, 0, 230, 17, 56, 61, 199, 254, 17, 23, 216, 235, 12, 254, 12, 235, 30, 23, 244, 39, 69, 11, 186, 48, 7, 68, 255, 255, 56, 255, 254, 30, 54, 12, 249, 74, 76, 249, 244, 29, 16, 32, 21, 220, 50, 4, 255, 224, 35, 240, 21, 58, 77, 40, 242, 58, 19, 219, 0, 10, 41, 252, 246, 243, 5, 221, 2, 59, 34, 29, 182, 242, 224, 253, 253, 14, 52, 218, 230, 4, 43, 251, 253, 55, 30, 41, 178, 248, 255, 1, 6, 14, 41, 246, 227, 250, 75, 245, 241, 47, 243, 64, 186, 253, 228, 23, 21, 17, 19, 222, 222, 2, 55, 253, 222, 61, 244, 0, 225, 239, 209, 49, 9, 208, 243, 1, 230, 253, 194, 251, 242, 29, 58, 228, 44, 228, 244, 50, 240, 29, 248, 240, 0, 161, 254, 245, 11, 46, 69, 10, 19, 228, 3, 65, 236, 252, 67, 25, 254, 15, 182, 26, 16, 74, 81, 49, 22, 27, 12, 24, 23, 215, 62, 8, 29, 191, 212, 18, 16, 65, 82, 11, 232, 4, 250, 44, 240, 218, 28, 27, 7, 252, 0, 8, 7, 60, 51, 224, 14, 9, 246, 35, 4, 209, 28, 251, 254, 216, 227, 5, 9, 67, 11, 1, 1, 28, 255, 33, 1, 231, 70, 25, 31, 244, 247, 24, 35, 44, 15, 54, 58, 17, 11, 242, 250, 193, 35, 15, 10, 218, 41, 253, 15, 46, 17, 15, 24, 250, 11, 53, 238, 206, 19, 29, 5, 219, 22, 9, 26, 238, 34, 33, 243, 245, 253, 11, 230, 211, 37, 3, 4, 244, 12, 255, 20, 235, 12, 11, 11, 18, 27, 253, 254, 207, 44, 11, 21, 23, 73, 25, 10, 229, 9, 9, 248, 17, 27, 23, 248, 253, 20, 20, 10, 12, 30, 248, 239, 8, 255, 13, 210, 11, 223, 209, 6, 24, 21, 22, 4, 218, 8, 34, 26, 252, 19, 253, 23, 42, 33, 42, 28, 35, 7, 4, 34, 1, 7, 4, 22, 248, 17, 250, 10, 234, 32, 84, 246, 71, 48, 29, 238, 252, 45, 28, 39, 19, 16, 1, 240, 40, 252, 9, 13, 69, 1, 251, 22, 74, 64, 18, 18, 35, 54, 0, 248, 39, 22, 245, 244, 81, 16, 29, 4, 15, 35, 252, 246, 238, 32, 30, 182, 45, 230, 241, 241, 59, 37, 30, 5, 218, 61, 247, 239, 1, 250, 219, 190, 214, 243, 212, 226, 47, 220, 237, 18, 34, 181, 0, 232, 18, 44, 13, 9, 216, 236, 75, 230, 0, 58, 21, 16, 241, 36, 6, 209, 6, 18, 233, 45, 250, 34, 52, 9, 4, 63, 0, 237, 242, 47, 254, 254, 40, 42, 223, 239, 19, 23, 44, 246, 229, 30, 252, 249, 251, 198, 1, 244, 52, 236, 0, 247, 20, 5, 2, 222, 250, 42, 6, 243, 14, 232, 15, 221, 14, 21, 206, 185, 246, 2, 245, 1, 250, 5, 1, 15, 76, 8, 18, 21, 18, 47, 6, 213, 251, 6, 60, 27, 243, 103, 8, 3, 93, 38, 16, 12, 20, 247, 227, 54, 24, 38, 52, 15, 29, 60, 36, 13, 41, 110, 7, 40, 95, 14, 231, 94, 44, 30, 11, 27, 37, 8, 15, 43, 77, 228, 45, 57, 62, 247, 241, 67, 50, 40, 246, 15, 89, 59, 56, 34, 126, 97, 38, 43, 55, 239, 199, 50, 14, 56, 249, 0, 63, 45, 25, 56, 127, 50, 247, 29, 13, 3, 35, 64, 246, 247, 64, 0, 79, 21, 222, 240, 240, 246, 232, 254, 238, 44, 34, 65, 244, 229, 46, 229, 61, 13, 246, 232, 18, 39, 243, 225, 5, 65, 30, 4, 9, 243, 6, 17, 68, 44, 253, 245, 32, 241, 242, 241, 0, 90, 36, 244, 240, 229, 6, 42, 24, 54, 239, 5, 51, 15, 244, 245, 227, 237, 23, 251, 253, 5, 118, 0, 10, 240, 245, 2, 32, 96, 17, 14, 35, 11, 255, 13, 252, 17, 104, 11, 230, 208, 250, 241, 4, 105, 248, 20, 93, 33, 239, 199, 11, 1, 249, 252, 235, 36, 4, 13, 177, 1, 22, 30, 109, 66, 239, 191, 246, 10, 22, 231, 2, 60, 244, 247, 235, 10, 244, 245, 39, 49, 49, 178, 31, 19, 13, 207, 240, 42, 6, 254, 252, 53, 1, 10, 78, 70, 14, 178, 43, 239, 85, 4, 236, 56, 249, 255, 66, 79, 253, 23, 73, 80, 233, 237, 19, 239, 68, 20, 230, 49, 1, 239, 197, 13, 12, 30, 89, 92, 12, 208, 51, 246, 247, 253, 240, 93, 228, 253, 230, 4, 249, 7, 66, 79, 21, 209, 14, 5, 11, 11, 29, 58, 252, 252, 225, 57, 6, 30, 48, 72, 34, 192, 239, 6, 29, 4, 23, 54, 244, 251, 7, 68, 233, 222, 34, 237, 57, 174, 254, 238, 28, 255, 15, 26, 233, 248, 10, 45, 230, 235, 80, 10, 35, 195, 242, 211, 60, 255, 228, 13, 244, 244, 217, 185, 236, 254, 252, 88, 234, 71, 237, 22, 86, 233, 89, 220, 224, 251, 160, 28, 16, 31, 28, 99, 10, 48, 254, 240, 42, 231, 233, 90, 0, 8, 237, 194, 246, 47, 86, 109, 45, 253, 19, 31, 44, 240, 3, 51, 0, 32, 228, 219, 25, 39, 71, 121, 0, 8, 0, 2, 78, 229, 216, 50, 249, 22, 224, 254, 254, 236, 61, 45, 222, 16, 11, 2, 47, 16, 242, 8, 25, 237, 240, 226, 18, 241, 79, 15, 233, 229, 23, 22, 9, 230, 236, 80, 2, 25, 236, 12, 7, 46, 43, 24, 64, 53, 254, 0, 244, 7, 189, 25, 37, 27, 1, 65, 19, 1, 42, 23, 9, 31, 246, 6, 40, 249, 210, 0, 250, 5, 229, 47, 14, 0, 241, 12, 21, 20, 6, 12, 254, 4, 214, 14, 15, 7, 21, 21, 1, 246, 226, 57, 15, 23, 6, 3, 4, 230, 243, 43, 253, 40, 34, 92, 14, 241, 253, 235, 7, 1, 36, 20, 6, 245, 28, 39, 24, 3, 47, 70, 241, 245, 250, 244, 245, 183, 17, 236, 201, 234, 45, 37, 251, 8, 225, 33, 31, 11, 242, 244, 6, 13, 24, 38, 17, 255, 40, 254, 10, 24, 251, 36, 240, 249, 30, 4, 0, 51, 229, 11, 91, 7, 65, 39, 35, 230, 2, 74, 3, 36, 35, 247, 10, 0, 27, 23, 29, 9, 95, 24, 8, 248, 115, 69, 20, 43, 254, 46, 252, 230, 49, 1, 242, 20, 101, 60, 22, 250, 38, 55, 2, 228, 227, 23, 22, 220, 42, 8, 225, 0, 84, 48, 12, 8, 226, 35, 248, 22, 244, 255, 229, 195, 245, 6, 242, 247, 68, 212, 2, 27, 46, 179, 6, 255, 42, 44, 251, 19, 204, 14, 56, 238, 247, 78, 8, 12, 243, 25, 235, 205, 222, 46, 224, 57, 0, 37, 70, 21, 11, 86, 245, 222, 234, 24, 253, 237, 45, 40, 2, 252, 238, 244, 70, 240, 228, 65, 249, 240, 30, 201, 11, 242, 60, 236, 235, 213, 241, 242, 235, 247, 217, 61, 233, 8, 3, 230, 234, 240, 39, 1, 198, 190, 211, 234, 3, 224, 244, 45, 13, 17, 74, 36, 25, 16, 245, 23, 49, 211, 17, 18, 34, 33, 254, 119, 16, 13, 90, 48, 12, 5, 35, 241, 235, 54, 13, 33, 74, 38, 46, 49, 42, 26, 48, 94, 39, 60, 102, 20, 229, 79, 25, 6, 4, 33, 37, 30, 2, 52, 78, 9, 28, 63, 68, 12, 7, 50, 40, 23, 228, 2, 98, 56, 16, 50, 98, 103, 40, 35, 71, 255, 223, 75, 44, 43, 9, 236, 98, 50, 36, 45, 127, 58, 253, 5, 13, 17, 39, 44, 19, 245, 41, 27, 86, 249, 249, 1, 228, 252, 13, 14, 4, 27, 43, 18, 254, 5, 37, 15, 69, 26, 243, 11, 5, 17, 238, 8, 6, 52, 16, 12, 16, 255, 240, 33, 91, 20, 233, 254, 26, 23, 14, 2, 241, 54, 39, 7, 254, 6, 5, 29, 62, 43, 11, 10, 41, 34, 4, 21, 239, 254, 30, 4, 247, 246, 94, 14, 23, 247, 230, 15, 254, 88, 12, 247, 1, 239, 12, 23, 6, 241, 65, 23, 13, 236, 239, 11, 246, 80, 245, 5, 70, 36, 14, 211, 18, 2, 7, 255, 235, 26, 243, 253, 216, 227, 5, 11, 76, 17, 248, 209, 9, 12, 19, 249, 253, 28, 244, 2, 228, 4, 245, 238, 254, 25, 28, 202, 12, 1, 6, 232, 238, 254, 1, 18, 6, 20, 18, 1, 38, 45, 28, 198, 40, 4, 43, 249, 15, 50, 11, 12, 37, 66, 26, 239, 47, 48, 239, 247, 25, 255, 46, 236, 224, 56, 252, 240, 209, 3, 13, 5, 53, 47, 19, 244, 20, 0, 242, 249, 248, 38, 234, 14, 243, 254, 239, 20, 53, 30, 4, 209, 247, 235, 252, 3, 2, 54, 239, 4, 239, 18, 247, 17, 53, 39, 48, 222, 240, 235, 1, 255, 247, 28, 229, 225, 241, 73, 236, 250, 46, 9, 56, 186, 1, 238, 21, 248, 250, 239, 252, 238, 24, 33, 3, 218, 51, 6, 21, 219, 254, 226, 28, 244, 221, 251, 1, 248, 1, 219, 7, 232, 19, 35, 245, 39, 249, 24, 43, 254, 40, 237, 4, 0, 183, 17, 249, 248, 47, 64, 26, 16, 245, 248, 27, 246, 249, 45, 10, 254, 8, 234, 8, 3, 55, 86, 24, 14, 24, 1, 33, 0, 206, 41, 252, 249, 231, 222, 12, 13, 46, 85, 2, 242, 20, 9, 56, 4, 211, 38, 3, 24, 223, 249, 19, 246, 32, 40, 242, 14, 240, 251, 20, 8, 218, 14, 15, 19, 245, 11, 23, 241, 64, 28, 253, 242, 25, 25, 23, 235, 220, 59, 30, 26, 5, 7, 19, 18, 22, 31, 40, 29, 252, 24, 4, 5, 196, 35, 12, 17, 230, 49, 15, 11, 21, 21, 9, 10, 248, 23, 42, 0, 206, 16, 6, 25, 219, 23, 21, 13, 231, 15, 10, 243, 20, 23, 13, 250, 228, 3, 254, 8, 16, 10, 14, 11, 239, 15, 21, 244, 13, 26, 30, 247, 209, 49, 9, 5, 1, 57, 7, 5, 234, 7, 7, 219, 19, 21, 255, 241, 228, 3, 5, 15, 25, 42, 230, 242, 248, 20, 12, 183, 255, 239, 213, 3, 14, 6, 12, 254, 220, 13, 6, 28, 0, 15, 254, 2, 10, 37, 11, 253, 32, 11, 26, 4, 29, 37, 11, 4, 247, 255, 25, 13, 225, 8, 74, 19, 61, 34, 34, 7, 254, 56, 1, 14, 21, 17, 247, 237, 22, 1, 254, 246, 83, 250, 19, 1, 70, 74, 13, 38, 27, 22, 12, 237, 26, 36, 243, 240, 63, 30, 9, 30, 0, 29, 231, 254, 228, 31, 20, 190, 26, 241, 239, 252, 61, 13, 248, 3, 212, 47, 250, 250, 244, 231, 236, 187, 247, 245, 223, 0, 55, 244, 0, 9, 0, 181, 5, 244, 34, 56, 242, 0, 228, 242, 48, 233, 242, 72, 6, 247, 247, 35, 233, 218, 254, 18, 231, 24, 13, 8, 58, 247, 10, 58, 250, 230, 253, 20, 246, 15, 34, 26, 243, 216, 3, 1, 36, 236, 2, 46, 7, 2, 7, 237, 250, 253, 48, 5, 244, 208, 7, 1, 246, 230, 251, 37, 10, 254, 251, 230, 252, 230, 5, 24, 220, 187, 247, 250, 1, 248, 17, 11, 14, 252, 52, 255, 3, 22, 250, 24, 16, 215, 17, 15, 54, 248, 250, 107, 28, 26, 56, 35, 251, 2, 27, 8, 221, 38, 20, 35, 41, 246, 18, 47, 31, 243, 36, 61, 24, 26, 50, 5, 218, 78, 24, 27, 251, 11, 30, 34, 20, 45, 89, 237, 36, 57, 65, 9, 240, 24, 42, 19, 2, 10, 79, 49, 45, 40, 98, 77, 22, 45, 48, 14, 222, 48, 9, 44, 3, 229, 60, 11, 13, 47, 127, 41, 182, 244, 241, 234, 25, 43, 7, 211, 228, 249, 243, 207, 205, 26, 20, 19, 199, 220, 243, 240, 204, 1, 234, 231, 254, 219, 245, 255, 249, 240, 15, 226, 157, 235, 253, 214, 202, 70, 169, 186, 5, 206, 235, 217, 232, 220, 22, 228, 236, 205, 235, 244, 191, 2, 219, 244, 3, 252, 18, 4, 178, 206, 42, 9, 187, 160, 7, 220, 210, 55, 229, 204, 26, 177, 0, 208, 178, 202, 1, 251, 161, 209, 219, 240, 38, 34, 251, 192, 23, 255, 211, 248, 244, 203, 51, 85, 213, 146, 11, 218, 221, 26, 166, 214, 41, 243, 239, 38, 181, 201, 6, 225, 212, 169, 230, 4, 231, 27, 197, 208, 218, 233, 200, 250, 194, 243, 239, 233, 195, 166, 255, 29, 249, 30, 163, 209, 219, 12, 186, 241, 245, 233, 30, 239, 243, 209, 34, 244, 242, 22, 188, 231, 33, 251, 188, 3, 234, 205, 4, 238, 190, 247, 220, 235, 9, 242, 190, 7, 5, 246, 199, 226, 240, 242, 3, 97, 176, 249, 31, 216, 5, 39, 14, 248, 233, 253, 250, 18, 231, 203, 41, 66, 236, 227, 0, 250, 19, 1, 30, 248, 39, 223, 240, 1, 198, 7, 2, 4, 237, 7, 13, 29, 29, 244, 35, 185, 20, 12, 218, 240, 254, 244, 48, 66, 221, 232, 0, 246, 79, 35, 242, 198, 238, 214, 250, 223, 212, 181, 242, 39, 189, 211, 7, 9, 17, 42, 223, 246, 242, 209, 205, 28, 204, 236, 2, 207, 220, 204, 248, 243, 217, 23, 245, 186, 12, 219, 255, 12, 171, 221, 16, 37, 243, 138, 32, 229, 207, 26, 209, 212, 241, 215, 10, 228, 213, 252, 51, 198, 9, 211, 35, 242, 235, 5, 3, 183, 216, 38, 221, 228, 16, 223, 17, 254, 209, 192, 28, 249, 19, 47, 251, 3, 31, 30, 209, 22, 209, 0, 11, 13, 0, 191, 39, 4, 15, 38, 233, 188, 232, 250, 29, 4, 177, 224, 34, 220, 232, 220, 250, 12, 235, 6, 253, 223, 227, 32, 235, 234, 238, 15, 228, 237, 186, 216, 11, 222, 17, 19, 200, 191, 28, 238, 229, 1, 185, 243, 22, 6, 218, 159, 31, 240, 243, 28, 216, 219, 13, 212, 9, 210, 240, 252, 20, 211, 205, 151, 5, 217, 20, 34, 247, 194, 237, 238, 239, 8, 184, 187, 35, 35, 252, 173, 221, 243, 207, 38, 182, 242, 227, 221, 250, 10, 218, 10, 243, 218, 1, 179, 250, 238, 220, 3, 251, 196, 220, 241, 245, 14, 240, 209, 14, 225, 222, 160, 212, 35, 233, 240, 177, 6, 226, 216, 190, 220, 181, 15, 19, 44, 224, 216, 40, 242, 192, 34, 230, 252, 249, 236, 23, 248, 185, 227, 12, 233, 193, 214, 16, 251, 5, 10, 195, 209, 35, 46, 211, 13, 168, 217, 247, 209, 233, 183, 237, 18, 216, 15, 129, 204, 241, 21, 18, 40, 185, 13, 32, 231, 230, 154, 19, 15, 225, 60, 183, 240, 221, 236, 1, 255, 152, 210, 28, 3, 191, 189, 239, 2, 253, 48, 195, 174, 9, 225, 220, 26, 158, 7, 34, 21, 185, 194, 254, 21, 38, 251, 245, 211, 237, 246, 242, 216, 184, 183, 1, 43, 208, 209, 254, 254, 216, 63, 191, 197, 2, 11, 3, 252, 202, 198, 2, 14, 179, 253, 17, 246, 7, 62, 214, 202, 219, 39, 246, 1, 194, 205, 3, 247, 252, 184, 220, 29, 10, 254, 155, 52, 239, 9, 253, 22, 213, 250, 22, 227, 223, 197, 229, 41, 238, 250, 219, 4, 43, 39, 215, 4, 224, 233, 238, 248, 248, 15, 0, 215, 85, 23, 240, 254, 243, 35, 22, 22, 195, 15, 6, 71, 9, 189, 20, 224, 254, 41, 200, 25, 38, 14, 19, 254, 228, 223, 25, 232, 252, 51, 47, 238, 80, 255, 248, 21, 251, 76, 34, 22, 196, 36, 24, 1, 234, 241, 251, 222, 13, 57, 245, 13, 36, 28, 251, 22, 229, 224, 76, 69, 20, 14, 13, 46, 58, 65, 225, 42, 50, 49, 58, 3, 229, 242, 25, 1, 224, 233, 239, 36, 18, 12, 244, 40, 66, 8, 245, 79, 213, 251, 44, 90, 250, 253, 255, 255, 4, 0, 0, 0, 64, 0, 0, 0, 106, 251, 255, 255, 97, 254, 255, 255, 40, 250, 255, 255, 103, 253, 255, 255, 77, 5, 0, 0, 39, 251, 255, 255, 241, 253, 255, 255, 169, 255, 255, 255, 10, 253, 255, 255, 75, 252, 255, 255, 220, 251, 255, 255, 92, 1, 0, 0, 226, 252, 255, 255, 57, 252, 255, 255, 193, 252, 255, 255, 235, 0, 0, 0, 70, 254, 255, 255, 4, 0, 0, 0, 16, 0, 0, 0, 2, 219, 29, 190, 67, 35, 209, 179, 223, 40, 37, 129, 188, 188, 203, 204, 98, 254, 255, 255, 4, 0, 0, 0, 4, 0, 0, 0, 141, 2, 0, 0, 114, 254, 255, 255, 4, 0, 0, 0, 4, 0, 0, 0, 192, 2, 0, 0, 130, 254, 255, 255, 4, 0, 0, 0, 4, 0, 0, 0, 1, 0, 0, 0, 146, 254, 255, 255, 4, 0, 0, 0, 4, 0, 0, 0, 0, 0, 0, 0, 0, 239, 255, 255, 4, 239, 255, 255, 15, 0, 0, 0, 77, 76, 73, 82, 32, 67, 111, 110, 118, 101, 114, 116, 101, 100, 46, 0, 1, 0, 0, 0, 20, 0, 0, 0, 0, 0, 14, 0, 24, 0, 20, 0, 16, 0, 12, 0, 8, 0, 4, 0, 14, 0, 0, 0, 20, 0, 0, 0, 28, 0, 0, 0, 0, 3, 0, 0, 4, 3, 0, 0, 8, 3, 0, 0, 4, 0, 0, 0, 109, 97, 105, 110, 0, 0, 0, 0, 11, 0, 0, 0, 152, 2, 0, 0, 52, 2, 0, 0, 224, 1, 0, 0, 156, 1, 0, 0, 96, 1, 0, 0, 16, 1, 0, 0, 208, 0, 0, 0, 168, 0, 0, 0, 96, 0, 0, 0, 40, 0, 0, 0, 4, 0, 0, 0, 114, 255, 255, 255, 12, 0, 0, 0, 16, 0, 0, 0, 7, 0, 0, 0, 1, 0, 0, 0, 22, 0, 0, 0, 1, 0, 0, 0, 21, 0, 0, 0, 34, 254, 255, 255, 20, 0, 0, 0, 0, 0, 0, 8, 16, 0, 0, 0, 20, 0, 0, 0, 6, 0, 0, 0, 192, 239, 255, 255, 1, 0, 0, 0, 21, 0, 0, 0, 3, 0, 0, 0, 20, 0, 0, 0, 5, 0, 0, 0, 4, 0, 0, 0, 86, 254, 255, 255, 20, 0, 0, 0, 0, 0, 0, 8, 20, 0, 0, 0, 24, 0, 0, 0, 6, 0, 0, 0, 14, 255, 255, 255, 0, 0, 0, 1, 1, 0, 0, 0, 20, 0, 0, 0, 3, 0, 0, 0, 19, 0, 0, 0, 7, 0, 0, 0, 6, 0, 0, 0, 0, 0, 10, 0, 16, 0, 12, 0, 8, 0, 4, 0, 10, 0, 0, 0, 12, 0, 0, 0, 16, 0, 0, 0, 5, 0, 0, 0, 1, 0, 0, 0, 19, 0, 0, 0, 2, 0, 0, 0, 15, 0, 0, 0, 18, 0, 0, 0, 190, 254, 255, 255, 28, 0, 0, 0, 0, 0, 0, 59, 28, 0, 0, 0, 32, 0, 0, 0, 4, 0, 0, 0, 0, 0, 6, 0, 8, 0, 4, 0, 6, 0, 0, 0, 2, 0, 0, 0, 1, 0, 0, 0, 18, 0, 0, 0, 2, 0, 0, 0, 17, 0, 0, 0, 3, 0, 0, 0, 250, 254, 255, 255, 36, 0, 0, 0, 0, 0, 0, 32, 36, 0, 0, 0, 40, 0, 0, 0, 3, 0, 0, 0, 0, 0, 14, 0, 8, 0, 0, 0, 0, 0, 0, 0, 0, 0, 4, 0, 14, 0, 0, 0, 1, 0, 0, 0, 1, 0, 0, 0, 17, 0, 0, 0, 4, 0, 0, 0, 16, 0, 0, 0, 1, 0, 0, 0, 2, 0, 0, 0, 2, 0, 0, 0, 70, 255, 255, 255, 28, 0, 0, 0, 0, 0, 0, 55, 28, 0, 0, 0, 32, 0, 0, 0, 2, 0, 0, 0, 0, 0, 6, 0, 8, 0, 7, 0, 6, 0, 0, 0, 0, 0, 0, 2, 1, 0, 0, 0, 16, 0, 0, 0, 1, 0, 0, 0, 15, 0, 0, 0, 126, 255, 255, 255, 20, 0, 0, 0, 0, 0, 0, 5, 36, 0, 0, 0, 40, 0, 0, 0, 1, 0, 0, 0, 110, 255, 255, 255, 2, 0, 0, 0, 2, 0, 0, 0, 2, 0, 0, 0, 2, 0, 0, 0, 0, 0, 0, 1, 1, 0, 0, 0, 15, 0, 0, 0, 1, 0, 0, 0, 14, 0, 0, 0, 94, 255, 255, 255, 16, 0, 0, 0, 0, 0, 0, 1, 28, 0, 0, 0, 32, 0, 0, 0, 80, 255, 255, 255, 0, 0, 0, 1, 1, 0, 0, 0, 1, 0, 0, 0, 0, 0, 0, 1, 1, 0, 0, 0, 14, 0, 0, 0, 3, 0, 0, 0, 13, 0, 0, 0, 9, 0, 0, 0, 8, 0, 0, 0, 0, 0, 14, 0, 26, 0, 20, 0, 16, 0, 12, 0, 11, 0, 4, 0, 14, 0, 0, 0, 36, 0, 0, 0, 0, 0, 0, 5, 52, 0, 0, 0, 56, 0, 0, 0, 1, 0, 0, 0, 0, 0, 14, 0, 24, 0, 23, 0, 16, 0, 12, 0, 8, 0, 4, 0, 14, 0, 0, 0, 2, 0, 0, 0, 2, 0, 0, 0, 2, 0, 0, 0, 2, 0, 0, 0, 0, 0, 0, 1, 1, 0, 0, 0, 13, 0, 0, 0, 1, 0, 0, 0, 12, 0, 0, 0, 0, 0, 14, 0, 20, 0, 0, 0, 16, 0, 12, 0, 11, 0, 4, 0, 14, 0, 0, 0, 28, 0, 0, 0, 0, 0, 0, 1, 40, 0, 0, 0, 44, 0, 0, 0, 12, 0, 20, 0, 19, 0, 12, 0, 8, 0, 7, 0, 12, 0, 0, 0, 0, 0, 0, 1, 1, 0, 0, 0, 1, 0, 0, 0, 0, 0, 0, 1, 1, 0, 0, 0, 12, 0, 0, 0, 3, 0, 0, 0, 0, 0, 0, 0, 11, 0, 0, 0, 10, 0, 0, 0, 1, 0, 0, 0, 22, 0, 0, 0, 1, 0, 0, 0, 0, 0, 0, 0, 23, 0, 0, 0, 232, 13, 0, 0, 140, 13, 0, 0, 52, 13, 0, 0, 248, 12, 0, 0, 148, 12, 0, 0, 48, 12, 0, 0, 28, 11, 0, 0, 0, 10, 0, 0, 236, 8, 0, 0, 200, 7, 0, 0, 20, 7, 0, 0, 80, 6, 0, 0, 124, 5, 0, 0, 224, 4, 0, 0, 236, 3, 0, 0, 80, 3, 0, 0, 0, 3, 0, 0, 172, 2, 0, 0, 84, 2, 0, 0, 208, 1, 0, 0, 28, 1, 0, 0, 128, 0, 0, 0, 4, 0, 0, 0, 138, 242, 255, 255, 0, 0, 0, 1, 24, 0, 0, 0, 32, 0, 0, 0, 60, 0, 0, 0, 23, 0, 0, 0, 0, 0, 0, 9, 80, 0, 0, 0, 2, 0, 0, 0, 255, 255, 255, 255, 1, 0, 0, 0, 108, 242, 255, 255, 8, 0, 0, 0, 16, 0, 0, 0, 1, 0, 0, 0, 128, 255, 255, 255, 255, 255, 255, 255, 1, 0, 0, 0, 0, 0, 128, 59, 27, 0, 0, 0, 83, 116, 97, 116, 101, 102, 117, 108, 80, 97, 114, 116, 105, 116, 105, 111, 110, 101, 100, 67, 97, 108, 108, 95, 49, 58, 48, 0, 2, 0, 0, 0, 1, 0, 0, 0, 1, 0, 0, 0, 2, 243, 255, 255, 0, 0, 0, 1, 24, 0, 0, 0, 32, 0, 0, 0, 60, 0, 0, 0, 22, 0, 0, 0, 0, 0, 0, 9, 112, 0, 0, 0, 2, 0, 0, 0, 255, 255, 255, 255, 1, 0, 0, 0, 228, 242, 255, 255, 8, 0, 0, 0, 16, 0, 0, 0, 1, 0, 0, 0, 93, 0, 0, 0, 0, 0, 0, 0, 1, 0, 0, 0, 82, 122, 69, 62, 56, 0, 0, 0, 115, 101, 113, 117, 101, 110, 116, 105, 97, 108, 95, 49, 47, 100, 101, 110, 115, 101, 95, 49, 95, 50, 47, 77, 97, 116, 77, 117, 108, 59, 115, 101, 113, 117, 101, 110, 116, 105, 97, 108, 95, 49, 47, 100, 101, 110, 115, 101, 95, 49, 95, 50, 47, 65, 100, 100, 0, 0, 0, 0, 2, 0, 0, 0, 1, 0, 0, 0, 1, 0, 0, 0, 154, 243, 255, 255, 0, 0, 0, 1, 24, 0, 0, 0, 32, 0, 0, 0, 60, 0, 0, 0, 21, 0, 0, 0, 0, 0, 0, 9, 136, 0, 0, 0, 2, 0, 0, 0, 255, 255, 255, 255, 16, 0, 0, 0, 124, 243, 255, 255, 8, 0, 0, 0, 16, 0, 0, 0, 1, 0, 0, 0, 128, 255, 255, 255, 255, 255, 255, 255, 1, 0, 0, 0, 20, 63, 161, 61, 82, 0, 0, 0, 115, 101, 113, 117, 101, 110, 116, 105, 97, 108, 95, 49, 47, 100, 101, 110, 115, 101, 95, 49, 47, 77, 97, 116, 77, 117, 108, 59, 115, 101, 113, 117, 101, 110, 116, 105, 97, 108, 95, 49, 47, 100, 101, 110, 115, 101, 95, 49, 47, 82, 101, 108, 117, 59, 115, 101, 113, 117, 101, 110, 116, 105, 97, 108, 95, 49, 47, 100, 101, 110, 115, 101, 95, 49, 47, 66, 105, 97, 115, 65, 100, 100, 0, 0, 2, 0, 0, 0, 1, 0, 0, 0, 16, 0, 0, 0, 74, 244, 255, 255, 0, 0, 0, 1, 24, 0, 0, 0, 32, 0, 0, 0, 64, 0, 0, 0, 20, 0, 0, 0, 0, 0, 0, 9, 88, 0, 0, 0, 2, 0, 0, 0, 255, 255, 255, 255, 192, 2, 0, 0, 44, 244, 255, 255, 8, 0, 0, 0, 20, 0, 0, 0, 1, 0, 0, 0, 128, 255, 255, 255, 255, 255, 255, 255, 0, 0, 0, 0, 1, 0, 0, 0, 17, 231, 51, 60, 30, 0, 0, 0, 115, 101, 113, 117, 101, 110, 116, 105, 97, 108, 95, 49, 47, 102, 108, 97, 116, 116, 101, 110, 95, 49, 47, 82, 101, 115, 104, 97, 112, 101, 0, 0, 2, 0, 0, 0, 1, 0, 0, 0, 192, 2, 0, 0, 34, 245, 255, 255, 0, 0, 0, 1, 20, 0, 0, 0, 20, 0, 0, 0, 19, 0, 0, 0, 0, 0, 0, 2, 52, 0, 0, 0, 12, 245, 255, 255, 36, 0, 0, 0, 115, 101, 113, 117, 101, 110, 116, 105, 97, 108, 95, 49, 47, 102, 108, 97, 116, 116, 101, 110, 95, 49, 47, 82, 101, 115, 104, 97, 112, 101, 47, 115, 104, 97, 112, 101, 0, 0, 0, 0, 1, 0, 0, 0, 2, 0, 0, 0, 118, 245, 255, 255, 0, 0, 0, 1, 20, 0, 0, 0, 20, 0, 0, 0, 18, 0, 0, 0, 0, 0, 0, 2, 52, 0, 0, 0, 96, 245, 255, 255, 36, 0, 0, 0, 115, 101, 113, 117, 101, 110, 116, 105, 97, 108, 95, 49, 47, 102, 108, 97, 116, 116, 101, 110, 95, 49, 47, 115, 116, 114, 105, 100, 101, 100, 95, 115, 108, 105, 99, 101, 0, 0, 0, 0, 0, 0, 0, 0, 198, 245, 255, 255, 0, 0, 0, 1, 20, 0, 0, 0, 20, 0, 0, 0, 17, 0, 0, 0, 0, 0, 0, 2, 44, 0, 0, 0, 176, 245, 255, 255, 28, 0, 0, 0, 115, 101, 113, 117, 101, 110, 116, 105, 97, 108, 95, 49, 47, 102, 108, 97, 116, 116, 101, 110, 95, 49, 47, 83, 104, 97, 112, 101, 0, 0, 0, 0, 1, 0, 0, 0, 4, 0, 0, 0, 186, 245, 255, 255, 0, 0, 0, 1, 24, 0, 0, 0, 40, 0, 0, 0, 68, 0, 0, 0, 16, 0, 0, 0, 0, 0, 0, 9, 104, 0, 0, 0, 4, 0, 0, 0, 255, 255, 255, 255, 22, 0, 0, 0, 2, 0, 0, 0, 16, 0, 0, 0, 164, 245, 255, 255, 8, 0, 0, 0, 16, 0, 0, 0, 1, 0, 0, 0, 128, 255, 255, 255, 255, 255, 255, 255, 1, 0, 0, 0, 17, 231, 51, 60, 40, 0, 0, 0, 115, 101, 113, 117, 101, 110, 116, 105, 97, 108, 95, 49, 47, 109, 97, 120, 95, 112, 111, 111, 108, 105, 110, 103, 50, 100, 95, 49, 95, 50, 47, 77, 97, 120, 80, 111, 111, 108, 50, 100, 0, 0, 0, 0, 4, 0, 0, 0, 1, 0, 0, 0, 22, 0, 0, 0, 2, 0, 0, 0, 16, 0, 0, 0, 82, 246, 255, 255, 0, 0, 0, 1, 24, 0, 0, 0, 40, 0, 0, 0, 68, 0, 0, 0, 15, 0, 0, 0, 0, 0, 0, 9, 192, 0, 0, 0, 4, 0, 0, 0, 255, 255, 255, 255, 45, 0, 0, 0, 5, 0, 0, 0, 16, 0, 0, 0, 60, 246, 255, 255, 8, 0, 0, 0, 16, 0, 0, 0, 1, 0, 0, 0, 128, 255, 255, 255, 255, 255, 255, 255, 1, 0, 0, 0, 17, 231, 51, 60, 128, 0, 0, 0, 115, 101, 113, 117, 101, 110, 116, 105, 97, 108, 95, 49, 47, 99, 111, 110, 118, 50, 100, 95, 49, 95, 50, 47, 82, 101, 108, 117, 59, 115, 101, 113, 117, 101, 110, 116, 105, 97, 108, 95, 49, 47, 99, 111, 110, 118, 50, 100, 95, 49, 95, 50, 47, 66, 105, 97, 115, 65, 100, 100, 59, 115, 101, 113, 117, 101, 110, 116, 105, 97, 108, 95, 49, 47, 99, 111, 110, 118, 50, 100, 95, 49, 95, 50, 47, 99, 111, 110, 118, 111, 108, 117, 116, 105, 111, 110, 59, 115, 101, 113, 117, 101, 110, 116, 105, 97, 108, 95, 49, 47, 99, 111, 110, 118, 50, 100, 95, 49, 95, 50, 47, 83, 113, 117, 101, 101, 122, 101, 0, 0, 0, 0, 4, 0, 0, 0, 1, 0, 0, 0, 45, 0, 0, 0, 5, 0, 0, 0, 16, 0, 0, 0, 66, 247, 255, 255, 0, 0, 0, 1, 24, 0, 0, 0, 40, 0, 0, 0, 72, 0, 0, 0, 14, 0, 0, 0, 0, 0, 0, 9, 104, 0, 0, 0, 4, 0, 0, 0, 255, 255, 255, 255, 47, 0, 0, 0, 7, 0, 0, 0, 8, 0, 0, 0, 44, 247, 255, 255, 8, 0, 0, 0, 20, 0, 0, 0, 1, 0, 0, 0, 128, 255, 255, 255, 255, 255, 255, 255, 0, 0, 0, 0, 1, 0, 0, 0, 231, 8, 91, 59, 38, 0, 0, 0, 115, 101, 113, 117, 101, 110, 116, 105, 97, 108, 95, 49, 47, 109, 97, 120, 95, 112, 111, 111, 108, 105, 110, 103, 50, 100, 95, 49, 47, 77, 97, 120, 80, 111, 111, 108, 50, 100, 0, 0, 4, 0, 0, 0, 1, 0, 0, 0, 47, 0, 0, 0, 7, 0, 0, 0, 8, 0, 0, 0, 218, 247, 255, 255, 0, 0, 0, 1, 24, 0, 0, 0, 40, 0, 0, 0, 72, 0, 0, 0, 13, 0, 0, 0, 0, 0, 0, 9, 160, 0, 0, 0, 4, 0, 0, 0, 255, 255, 255, 255, 94, 0, 0, 0, 14, 0, 0, 0, 8, 0, 0, 0, 196, 247, 255, 255, 8, 0, 0, 0, 20, 0, 0, 0, 1, 0, 0, 0, 128, 255, 255, 255, 255, 255, 255, 255, 0, 0, 0, 0, 1, 0, 0, 0, 231, 8, 91, 59, 92, 0, 0, 0, 115, 101, 113, 117, 101, 110, 116, 105, 97, 108, 95, 49, 47, 99, 111, 110, 118, 50, 100, 95, 49, 47, 82, 101, 108, 117, 59, 115, 101, 113, 117, 101, 110, 116, 105, 97, 108, 95, 49, 47, 99, 111, 110, 118, 50, 100, 95, 49, 47, 66, 105, 97, 115, 65, 100, 100, 59, 115, 101, 113, 117, 101, 110, 116, 105, 97, 108, 95, 49, 47, 99, 111, 110, 118, 50, 100, 95, 49, 47, 99, 111, 110, 118, 111, 108, 117, 116, 105, 111, 110, 59, 49, 0, 0, 0, 0, 4, 0, 0, 0, 1, 0, 0, 0, 94, 0, 0, 0, 14, 0, 0, 0, 8, 0, 0, 0, 2, 249, 255, 255, 0, 0, 0, 1, 20, 0, 0, 0, 136, 0, 0, 0, 12, 0, 0, 0, 0, 0, 0, 9, 148, 0, 0, 0, 124, 248, 255, 255, 8, 0, 0, 0, 76, 0, 0, 0, 8, 0, 0, 0, 0, 0, 0, 0, 0, 0, 0, 0, 0, 0, 0, 0, 0, 0, 0, 0, 0, 0, 0, 0, 0, 0, 0, 0, 0, 0, 0, 0, 0, 0, 0, 0, 0, 0, 0, 0, 0, 0, 0, 0, 0, 0, 0, 0, 0, 0, 0, 0, 0, 0, 0, 0, 0, 0, 0, 0, 0, 0, 0, 0, 0, 0, 0, 0, 0, 0, 0, 0, 8, 0, 0, 0, 31, 208, 3, 59, 56, 240, 253, 58, 48, 218, 136, 59, 236, 80, 44, 59, 94, 67, 144, 59, 66, 10, 145, 59, 147, 152, 231, 58, 162, 21, 38, 59, 18, 0, 0, 0, 116, 102, 108, 46, 112, 115, 101, 117, 100, 111, 95, 113, 99, 111, 110, 115, 116, 55, 0, 0, 4, 0, 0, 0, 8, 0, 0, 0, 3, 0, 0, 0, 3, 0, 0, 0, 1, 0, 0, 0, 194, 249, 255, 255, 0, 0, 0, 1, 20, 0, 0, 0, 132, 0, 0, 0, 11, 0, 0, 0, 0, 0, 0, 2, 144, 0, 0, 0, 60, 249, 255, 255, 8, 0, 0, 0, 72, 0, 0, 0, 8, 0, 0, 0, 0, 0, 0, 0, 0, 0, 0, 0, 0, 0, 0, 0, 0, 0, 0, 0, 0, 0, 0, 0, 0, 0, 0, 0, 0, 0, 0, 0, 0, 0, 0, 0, 0, 0, 0, 0, 0, 0, 0, 0, 0, 0, 0, 0, 0, 0, 0, 0, 0, 0, 0, 0, 0, 0, 0, 0, 0, 0, 0, 0, 0, 0, 0, 0, 8, 0, 0, 0, 116, 84, 4, 55, 40, 239, 254, 54, 148, 99, 137, 55, 235, 253, 44, 55, 51, 212, 144, 55, 222, 155, 145, 55, 21, 129, 232, 54, 95, 188, 38, 55, 18, 0, 0, 0, 116, 102, 108, 46, 112, 115, 101, 117, 100, 111, 95, 113, 99, 111, 110, 115, 116, 54, 0, 0, 1, 0, 0, 0, 8, 0, 0, 0, 114, 250, 255, 255, 0, 0, 0, 1, 20, 0, 0, 0, 232, 0, 0, 0, 10, 0, 0, 0, 0, 0, 0, 9, 244, 0, 0, 0, 236, 249, 255, 255, 8, 0, 0, 0, 140, 0, 0, 0, 16, 0, 0, 0, 0, 0, 0, 0, 0, 0, 0, 0, 0, 0, 0, 0, 0, 0, 0, 0, 0, 0, 0, 0, 0, 0, 0, 0, 0, 0, 0, 0, 0, 0, 0, 0, 0, 0, 0, 0, 0, 0, 0, 0, 0, 0, 0, 0, 0, 0, 0, 0, 0, 0, 0, 0, 0, 0, 0, 0, 0, 0, 0, 0, 0, 0, 0, 0, 0, 0, 0, 0, 0, 0, 0, 0, 0, 0, 0, 0, 0, 0, 0, 0, 0, 0, 0, 0, 0, 0, 0, 0, 0, 0, 0, 0, 0, 0, 0, 0, 0, 0, 0, 0, 0, 0, 0, 0, 0, 0, 0, 0, 0, 0, 0, 0, 0, 0, 0, 0, 0, 0, 0, 0, 0, 0, 0, 0, 0, 0, 0, 0, 0, 0, 0, 0, 16, 0, 0, 0, 220, 174, 145, 59, 178, 17, 203, 59, 23, 232, 139, 59, 2, 166, 137, 59, 43, 187, 171, 59, 0, 123, 196, 59, 89, 130, 188, 59, 49, 108, 179, 59, 253, 131, 137, 59, 87, 28, 145, 59, 193, 145, 143, 59, 144, 107, 127, 59, 166, 84, 128, 59, 72, 138, 145, 59, 216, 106, 163, 59, 72, 234, 120, 59, 18, 0, 0, 0, 116, 102, 108, 46, 112, 115, 101, 117, 100, 111, 95, 113, 99, 111, 110, 115, 116, 53, 0, 0, 4, 0, 0, 0, 16, 0, 0, 0, 3, 0, 0, 0, 3, 0, 0, 0, 8, 0, 0, 0, 146, 251, 255, 255, 0, 0, 0, 1, 20, 0, 0, 0, 228, 0, 0, 0, 9, 0, 0, 0, 0, 0, 0, 2, 240, 0, 0, 0, 12, 251, 255, 255, 8, 0, 0, 0, 136, 0, 0, 0, 16, 0, 0, 0, 0, 0, 0, 0, 0, 0, 0, 0, 0, 0, 0, 0, 0, 0, 0, 0, 0, 0, 0, 0, 0, 0, 0, 0, 0, 0, 0, 0, 0, 0, 0, 0, 0, 0, 0, 0, 0, 0, 0, 0, 0, 0, 0, 0, 0, 0, 0, 0, 0, 0, 0, 0, 0, 0, 0, 0, 0, 0, 0, 0, 0, 0, 0, 0, 0, 0, 0, 0, 0, 0, 0, 0, 0, 0, 0, 0, 0, 0, 0, 0, 0, 0, 0, 0, 0, 0, 0, 0, 0, 0, 0, 0, 0, 0, 0, 0, 0, 0, 0, 0, 0, 0, 0, 0, 0, 0, 0, 0, 0, 0, 0, 0, 0, 0, 0, 0, 0, 0, 0, 0, 0, 0, 0, 0, 0, 0, 0, 0, 16, 0, 0, 0, 78, 75, 121, 55, 51, 191, 173, 55, 210, 104, 111, 55, 154, 139, 107, 55, 23, 239, 146, 55, 14, 28, 168, 55, 16, 74, 161, 55, 203, 131, 153, 55, 99, 81, 107, 55, 149, 80, 120, 55, 92, 173, 117, 55, 230, 137, 90, 55, 193, 153, 91, 55, 182, 12, 121, 55, 22, 210, 139, 55, 20, 249, 84, 55, 18, 0, 0, 0, 116, 102, 108, 46, 112, 115, 101, 117, 100, 111, 95, 113, 99, 111, 110, 115, 116, 52, 0, 0, 1, 0, 0, 0, 16, 0, 0, 0, 162, 252, 255, 255, 0, 0, 0, 1, 20, 0, 0, 0, 232, 0, 0, 0, 8, 0, 0, 0, 0, 0, 0, 9, 244, 0, 0, 0, 28, 252, 255, 255, 8, 0, 0, 0, 140, 0, 0, 0, 16, 0, 0, 0, 0, 0, 0, 0, 0, 0, 0, 0, 0, 0, 0, 0, 0, 0, 0, 0, 0, 0, 0, 0, 0, 0, 0, 0, 0, 0, 0, 0, 0, 0, 0, 0, 0, 0, 0, 0, 0, 0, 0, 0, 0, 0, 0, 0, 0, 0, 0, 0, 0, 0, 0, 0, 0, 0, 0, 0, 0, 0, 0, 0, 0, 0, 0, 0, 0, 0, 0, 0, 0, 0, 0, 0, 0, 0, 0, 0, 0, 0, 0, 0, 0, 0, 0, 0, 0, 0, 0, 0, 0, 0, 0, 0, 0, 0, 0, 0, 0, 0, 0, 0, 0, 0, 0, 0, 0, 0, 0, 0, 0, 0, 0, 0, 0, 0, 0, 0, 0, 0, 0, 0, 0, 0, 0, 0, 0, 0, 0, 0, 0, 0, 0, 0, 16, 0, 0, 0, 6, 190, 78, 58, 249, 103, 185, 59, 146, 16, 100, 58, 177, 131, 155, 59, 234, 30, 139, 59, 129, 251, 84, 58, 69, 55, 178, 59, 183, 81, 199, 59, 30, 18, 156, 59, 58, 173, 97, 58, 126, 33, 107, 58, 243, 101, 202, 59, 182, 242, 144, 59, 154, 16, 129, 59, 217, 40, 174, 59, 15, 184, 14, 59, 18, 0, 0, 0, 116, 102, 108, 46, 112, 115, 101, 117, 100, 111, 95, 113, 99, 111, 110, 115, 116, 51, 0, 0, 2, 0, 0, 0, 16, 0, 0, 0, 192, 2, 0, 0, 186, 253, 255, 255, 0, 0, 0, 1, 20, 0, 0, 0, 228, 0, 0, 0, 7, 0, 0, 0, 0, 0, 0, 2, 240, 0, 0, 0, 52, 253, 255, 255, 8, 0, 0, 0, 136, 0, 0, 0, 16, 0, 0, 0, 0, 0, 0, 0, 0, 0, 0, 0, 0, 0, 0, 0, 0, 0, 0, 0, 0, 0, 0, 0, 0, 0, 0, 0, 0, 0, 0, 0, 0, 0, 0, 0, 0, 0, 0, 0, 0, 0, 0, 0, 0, 0, 0, 0, 0, 0, 0, 0, 0, 0, 0, 0, 0, 0, 0, 0, 0, 0, 0, 0, 0, 0, 0, 0, 0, 0, 0, 0, 0, 0, 0, 0, 0, 0, 0, 0, 0, 0, 0, 0, 0, 0, 0, 0, 0, 0, 0, 0, 0, 0, 0, 0, 0, 0, 0, 0, 0, 0, 0, 0, 0, 0, 0, 0, 0, 0, 0, 0, 0, 0, 0, 0, 0, 0, 0, 0, 0, 0, 0, 0, 0, 0, 0, 0, 0, 0, 0, 0, 16, 0, 0, 0, 121, 73, 17, 55, 12, 75, 130, 56, 112, 69, 32, 55, 230, 146, 90, 56, 96, 136, 67, 56, 24, 172, 21, 55, 2, 123, 122, 56, 11, 18, 140, 56, 19, 91, 91, 56, 210, 151, 30, 55, 166, 60, 37, 55, 248, 59, 142, 56, 20, 185, 75, 56, 52, 102, 53, 56, 132, 199, 116, 56, 8, 151, 200, 55, 18, 0, 0, 0, 116, 102, 108, 46, 112, 115, 101, 117, 100, 111, 95, 113, 99, 111, 110, 115, 116, 50, 0, 0, 1, 0, 0, 0, 16, 0, 0, 0, 202, 254, 255, 255, 0, 0, 0, 1, 20, 0, 0, 0, 48, 0, 0, 0, 6, 0, 0, 0, 0, 0, 0, 9, 60, 0, 0, 0, 68, 254, 255, 255, 8, 0, 0, 0, 16, 0, 0, 0, 1, 0, 0, 0, 0, 0, 0, 0, 0, 0, 0, 0, 1, 0, 0, 0, 203, 248, 50, 60, 18, 0, 0, 0, 116, 102, 108, 46, 112, 115, 101, 117, 100, 111, 95, 113, 99, 111, 110, 115, 116, 49, 0, 0, 2, 0, 0, 0, 1, 0, 0, 0, 16, 0, 0, 0, 42, 255, 255, 255, 0, 0, 0, 1, 20, 0, 0, 0, 52, 0, 0, 0, 5, 0, 0, 0, 0, 0, 0, 2, 64, 0, 0, 0, 164, 254, 255, 255, 8, 0, 0, 0, 20, 0, 0, 0, 1, 0, 0, 0, 0, 0, 0, 0, 0, 0, 0, 0, 0, 0, 0, 0, 1, 0, 0, 0, 34, 117, 97, 58, 17, 0, 0, 0, 116, 102, 108, 46, 112, 115, 101, 117, 100, 111, 95, 113, 99, 111, 110, 115, 116, 0, 0, 0, 1, 0, 0, 0, 1, 0, 0, 0, 138, 255, 255, 255, 0, 0, 0, 1, 20, 0, 0, 0, 20, 0, 0, 0, 4, 0, 0, 0, 0, 0, 0, 2, 28, 0, 0, 0, 116, 255, 255, 255, 15, 0, 0, 0, 97, 114, 105, 116, 104, 46, 99, 111, 110, 115, 116, 97, 110, 116, 50, 0, 0, 0, 0, 0, 194, 255, 255, 255, 0, 0, 0, 1, 20, 0, 0, 0, 20, 0, 0, 0, 3, 0, 0, 0, 0, 0, 0, 2, 28, 0, 0, 0, 172, 255, 255, 255, 15, 0, 0, 0, 97, 114, 105, 116, 104, 46, 99, 111, 110, 115, 116, 97, 110, 116, 49, 0, 1, 0, 0, 0, 1, 0, 0, 0, 0, 0, 22, 0, 28, 0, 24, 0, 23, 0, 16, 0, 12, 0, 8, 0, 0, 0, 0, 0, 0, 0, 7, 0, 22, 0, 0, 0, 0, 0, 0, 1, 24, 0, 0, 0, 24, 0, 0, 0, 2, 0, 0, 0, 0, 0, 0, 2, 32, 0, 0, 0, 4, 0, 4, 0, 4, 0, 0, 0, 14, 0, 0, 0, 97, 114, 105, 116, 104, 46, 99, 111, 110, 115, 116, 97, 110, 116, 0, 0, 1, 0, 0, 0, 1, 0, 0, 0, 0, 0, 22, 0, 32, 0, 28, 0, 27, 0, 20, 0, 16, 0, 12, 0, 0, 0, 0, 0, 8, 0, 7, 0, 22, 0, 0, 0, 0, 0, 0, 1, 24, 0, 0, 0, 52, 0, 0, 0, 84, 0, 0, 0, 1, 0, 0, 0, 0, 0, 0, 9, 108, 0, 0, 0, 4, 0, 0, 0, 255, 255, 255, 255, 96, 0, 0, 0, 16, 0, 0, 0, 1, 0, 0, 0, 12, 0, 12, 0, 0, 0, 0, 0, 8, 0, 4, 0, 12, 0, 0, 0, 8, 0, 0, 0, 20, 0, 0, 0, 1, 0, 0, 0, 128, 255, 255, 255, 255, 255, 255, 255, 0, 0, 0, 0, 1, 0, 0, 0, 129, 128, 128, 59, 30, 0, 0, 0, 115, 101, 114, 118, 105, 110, 103, 95, 100, 101, 102, 97, 117, 108, 116, 95, 107, 101, 114, 97, 115, 95, 116, 101, 110, 115, 111, 114, 58, 48, 0, 0, 4, 0, 0, 0, 1, 0, 0, 0, 96, 0, 0, 0, 16, 0, 0, 0, 1, 0, 0, 0, 8, 0, 0, 0, 152, 0, 0, 0, 120, 0, 0, 0, 104, 0, 0, 0, 76, 0, 0, 0, 60, 0, 0, 0, 44, 0, 0, 0, 24, 0, 0, 0, 4, 0, 0, 0, 148, 255, 255, 255, 14, 0, 0, 0, 2, 0, 0, 0, 0, 0, 0, 14, 164, 255, 255, 255, 9, 0, 0, 0, 4, 0, 0, 0, 0, 0, 0, 9, 220, 255, 255, 255, 22, 0, 0, 0, 0, 0, 0, 22, 232, 255, 255, 255, 83, 0, 0, 0, 0, 0, 0, 83, 244, 255, 255, 255, 45, 0, 0, 0, 0, 0, 0, 45, 12, 0, 12, 0, 11, 0, 0, 0, 0, 0, 4, 0, 12, 0, 0, 0, 77, 0, 0, 0, 0, 0, 0, 77, 240, 255, 255, 255, 17, 0, 0, 0, 2, 0, 0, 0, 0, 0, 0, 17, 12, 0, 16, 0, 15, 0, 0, 0, 8, 0, 4, 0, 12, 0, 0, 0, 3, 0, 0, 0, 3, 0, 0, 0, 0, 0, 0, 3
};

const unsigned int bad_tiny_model_len = 18112;

#endif
